{
  "version": "1.0",
  "truncation": {
    "direction": "Right",
    "max_length": 512,
    "strategy": "LongestFirst",
    "stride": 0
  },
  "padding": {
    "strategy": "BatchLongest",
    "direction": "Right",
    "pad_to_multiple_of": null,
    "pad_id": 0,
    "pad_type_id": 0,
    "pad_token": "[PAD]"
  },
  "added_tokens": [
    {
      "id": 0,
      "content": "[PAD]",
      "single_word": false,
      "lstrip": false,
      "rstrip": false,
      "normalized": false,
      "special": true
    },
    {
      "id": 1,
      "content": "[BOS]",
      "single_word": false,
      "lstrip": false,
      "rstrip": false,
      "normalized": false,
      "special": true
    },
    {
      "id": 2,
      "content": "[EOS]",
      "single_word": false,
      "lstrip": false,
      "rstrip": false,
      "normalized": false,
      "special": true
    },
    {
      "id": 3,
      "content": "[UNK]",
      "single_word": false,
      "lstrip": false,
      "rstrip": false,
      "normalized": false,
      "special": true
    }
  ],
  "normalizer": {
    "type": "Lowercase"
  },
  "pre_tokenizer": {
    "type": "Whitespace"
  },
  "post_processor": {
    "type": "TemplateProcessing",
    "single": [
      {
        "SpecialToken": {
          "id": "[BOS]",
          "type_id": 0
        }
      },
      {
        "Sequence": {
          "id": "A",
          "type_id": 0
        }
      },
      {
        "SpecialToken": {
          "id": "[EOS]",
          "type_id": 0
        }
      }
    ],
    "pair": [
      {
        "Sequence": {
          "id": "A",
          "type_id": 0
        }
      },
      {
        "Sequence": {
          "id": "B",
          "type_id": 1
        }
      }
    ],
    "special_tokens": {
      "[BOS]": {
        "id": "[BOS]",
        "ids": [
          1
        ],
        "tokens": [
          "[BOS]"
        ]
      },
      "[EOS]": {
        "id": "[EOS]",
        "ids": [
          2
        ],
        "tokens": [
          "[EOS]"
        ]
      }
    }
  },
  "decoder": null,
  "model": {
    "type": "BPE",
    "dropout": null,
    "unk_token": null,
    "continuing_subword_prefix": "</w>",
    "end_of_word_suffix": null,
    "fuse_unk": false,
    "byte_fallback": false,
    "ignore_merges": false,
    "vocab": {
      "[PAD]": 0,
      "[BOS]": 1,
      "[EOS]": 2,
      "[UNK]": 3,
      "!": 4,
      "\"": 5,
      "#": 6,
      "$": 7,
      "%": 8,
      "&": 9,
      "'": 10,
      "(": 11,
      ")": 12,
      "*": 13,
      "+": 14,
      ",": 15,
      "-": 16,
      ".": 17,
      "/": 18,
      "0": 19,
      "1": 20,
      "2": 21,
      "3": 22,
      "4": 23,
      "5": 24,
      "6": 25,
      "7": 26,
      "8": 27,
      "9": 28,
      ":": 29,
      ";": 30,
      "<": 31,
      "=": 32,
      ">": 33,
      "?": 34,
      "[": 35,
      "]": 36,
      "_": 37,
      "`": 38,
      "a": 39,
      "b": 40,
      "c": 41,
      "d": 42,
      "e": 43,
      "f": 44,
      "g": 45,
      "h": 46,
      "i": 47,
      "j": 48,
      "k": 49,
      "l": 50,
      "m": 51,
      "n": 52,
      "o": 53,
      "p": 54,
      "q": 55,
      "r": 56,
      "s": 57,
      "t": 58,
      "u": 59,
      "v": 60,
      "w": 61,
      "x": 62,
      "y": 63,
      "z": 64,
      "{": 65,
      "}": 66,
      "~": 67,
      "": 68,
      "£": 69,
      "«": 70,
      "°": 71,
      "º": 72,
      "»": 73,
      "à": 74,
      "á": 75,
      "â": 76,
      "ã": 77,
      "ä": 78,
      "æ": 79,
      "ç": 80,
      "è": 81,
      "é": 82,
      "ê": 83,
      "ë": 84,
      "ì": 85,
      "î": 86,
      "ï": 87,
      "ñ": 88,
      "ò": 89,
      "ô": 90,
      "ö": 91,
      "ù": 92,
      "û": 93,
      "ü": 94,
      "œ": 95,
      "έ": 96,
      "ί": 97,
      "α": 98,
      "β": 99,
      "γ": 100,
      "ε": 101,
      "ι": 102,
      "κ": 103,
      "λ": 104,
      "μ": 105,
      "ν": 106,
      "ο": 107,
      "τ": 108,
      "φ": 109,
      "ϊ": 110,
      "ό": 111,
      "а": 112,
      "г": 113,
      "н": 114,
      "–": 115,
      "—": 116,
      "‘": 117,
      "’": 118,
      "“": 119,
      "”": 120,
      "…": 121,
      "−": 122,
      "</w>é": 123,
      "</w>f": 124,
      "</w>i": 125,
      "</w>e": 126,
      "</w>r": 127,
      "</w>c": 128,
      "</w>o": 129,
      "</w>n": 130,
      "</w>q": 131,
      "</w>u": 132,
      "</w>l": 133,
      "</w>w": 134,
      "</w>a": 135,
      "</w>k": 136,
      "</w>m": 137,
      "</w>t": 138,
      "</w>s": 139,
      "</w>d": 140,
      "</w>y": 141,
      "</w>h": 142,
      "</w>â": 143,
      "</w>j": 144,
      "</w>p": 145,
      "</w>v": 146,
      "</w>έ": 147,
      "</w>γ": 148,
      "</w>α": 149,
      "</w>»": 150,
      "</w>b": 151,
      "</w>g": 152,
      "</w>?": 153,
      "</w>\"": 154,
      "</w>z": 155,
      "</w>x": 156,
      "</w>î": 157,
      "</w>è": 158,
      "</w>ç": 159,
      "</w>_": 160,
      "</w>3": 161,
      "</w>4": 162,
      "</w>2": 163,
      "</w>ô": 164,
      "</w>ê": 165,
      "</w>ï": 166,
      "</w>,": 167,
      "</w>û": 168,
      "</w>;": 169,
      "</w>5": 170,
      "</w>0": 171,
      "</w>7": 172,
      "</w>−": 173,
      "</w>.": 174,
      "</w>)": 175,
      "</w>8": 176,
      "</w>*": 177,
      "</w>1": 178,
      "</w>”": 179,
      "</w>æ": 180,
      "</w>-": 181,
      "</w>9": 182,
      "</w>'": 183,
      "</w>à": 184,
      "</w>—": 185,
      "</w>!": 186,
      "</w>ù": 187,
      "</w>ö": 188,
      "</w>ü": 189,
      "</w>«": 190,
      "</w>œ": 191,
      "</w>ë": 192,
      "</w>]": 193,
      "</w>6": 194,
      "</w>ä": 195,
      "</w>ñ": 196,
      "</w>(": 197,
      "</w>:": 198,
      "</w>º": 199,
      "</w>&": 200,
      "</w>[": 201,
      "</w>>": 202,
      "</w>=": 203,
      "</w>‘": 204,
      "</w>’": 205,
      "</w>$": 206,
      "</w>…": 207,
      "</w>г": 208,
      "</w>н": 209,
      "</w>ò": 210,
      "</w>ã": 211,
      "</w>á": 212,
      "</w>~": 213,
      "</w>ì": 214,
      "</w>τ": 215,
      "</w>ο": 216,
      "</w>ϊ": 217,
      "</w>ν": 218,
      "</w>ε": 219,
      "</w>ί": 220,
      "</w>“": 221,
      "</w>κ": 222,
      "</w>ό": 223,
      "</w>φ": 224,
      "</w>–": 225,
      "</w>ι": 226,
      "</w>β": 227,
      "</w>λ": 228,
      "</w>/": 229,
      "</w>er": 230,
      "th": 231,
      "</w>ou": 232,
      "</w>es": 233,
      "</w>en": 234,
      "</w>ai": 235,
      "</w>on": 236,
      "</w>an": 237,
      "the": 238,
      "</w>re": 239,
      "</w>in": 240,
      "</w>is": 241,
      "de": 242,
      "</w>ar": 243,
      "</w>le": 244,
      "</w>it": 245,
      "</w>at": 246,
      "</w>ent": 247,
      "</w>ed": 248,
      "</w>or": 249,
      "</w>as": 250,
      "qu": 251,
      "an": 252,
      "</w>ait": 253,
      "to": 254,
      "</w>ur": 255,
      "</w>om": 256,
      "of": 257,
      "</w>ing": 258,
      "</w>ll": 259,
      "in": 260,
      "le": 261,
      "la": 262,
      "and": 263,
      "un": 264,
      "</w>ch": 265,
      "</w>ut": 266,
      "en": 267,
      "et": 268,
      "</w>us": 269,
      "</w>et": 270,
      "</w>el": 271,
      "</w>our": 272,
      "</w>ir": 273,
      "</w>ant": 274,
      "</w>ce": 275,
      "il": 276,
      "</w>ous": 277,
      "</w>ad": 278,
      "</w>ve": 279,
      "wh": 280,
      "</w>ais": 281,
      "</w>ot": 282,
      "</w>me": 283,
      "he": 284,
      "</w>te": 285,
      "</w>ion": 286,
      "se": 287,
      "</w>al": 288,
      "</w>ri": 289,
      "on": 290,
      "</w>qu": 291,
      "re": 292,
      "</w>ro": 293,
      "</w>il": 294,
      "</w>st": 295,
      "be": 296,
      "je": 297,
      "ch": 298,
      "que": 299,
      "les": 300,
      "was": 301,
      "</w>ie": 302,
      "ne": 303,
      "</w>se": 304,
      "it": 305,
      "that": 306,
      "ét": 307,
      "sh": 308,
      "</w>ment": 309,
      "</w>ain": 310,
      "</w>and": 311,
      "me": 312,
      "par": 313,
      "</w>ver": 314,
      "for": 315,
      "</w>ig": 316,
      "com": 317,
      "</w>ag": 318,
      "</w>ter": 319,
      "con": 320,
      "</w>ow": 321,
      "</w>im": 322,
      "</w>ith": 323,
      "as": 324,
      "</w>ans": 325,
      "at": 326,
      "</w>ld": 327,
      "av": 328,
      "pas": 329,
      "</w>ere": 330,
      "</w>id": 331,
      "</w>out": 332,
      "</w>ux": 333,
      "des": 334,
      "pl": 335,
      "sa": 336,
      "his": 337,
      "une": 338,
      "with": 339,
      "</w>end": 340,
      "pr": 341,
      "you": 342,
      "had": 343,
      "not": 344,
      "</w>ab": 345,
      "</w>lle": 346,
      "qui": 347,
      "</w>ien": 348,
      "ce": 349,
      "mo": 350,
      "</w>am": 351,
      "</w>ly": 352,
      "</w>ne": 353,
      "</w>ay": 354,
      "</w>pp": 355,
      "</w>ess": 356,
      "su": 357,
      "</w>ct": 358,
      "tr": 359,
      "du": 360,
      "st": 361,
      "so": 362,
      "her": 363,
      "</w>ard": 364,
      "</w>os": 365,
      "vous": 366,
      "--": 367,
      "ar": 368,
      "ha": 369,
      "</w>ill": 370,
      "mon": 371,
      "</w>ul": 372,
      "</w>ould": 373,
      "dans": 374,
      "pour": 375,
      "fr": 376,
      "elle": 377,
      "</w>ui": 378,
      "</w>ht": 379,
      "au": 380,
      "</w>ol": 381,
      "my": 382,
      "</w>ic": 383,
      "</w>mp": 384,
      "</w>aient": 385,
      "son": 386,
      "him": 387,
      "</w>tre": 388,
      "ex": 389,
      "</w>ure": 390,
      "sur": 391,
      "</w>ers": 392,
      "</w>ac": 393,
      "whi": 394,
      "était": 395,
      "</w>ort": 396,
      "all": 397,
      "est": 398,
      "is": 399,
      "</w>ée": 400,
      "</w>ff": 401,
      "dé": 402,
      "she": 403,
      "</w>au": 404,
      "but": 405,
      "</w>que": 406,
      "</w>ap": 407,
      "we": 408,
      "which": 409,
      "</w>res": 410,
      "mais": 411,
      "gr": 412,
      "this": 413,
      "</w>ire": 414,
      "</w>ation": 415,
      "</w>est": 416,
      "lui": 417,
      "</w>her": 418,
      ".\"": 419,
      "avait": 420,
      "plus": 421,
      "vo": 422,
      "</w>ge": 423,
      "al": 424,
      "</w>all": 425,
      "</w>oo": 426,
      "li": 427,
      "have": 428,
      "</w>pr": 429,
      "dis": 430,
      "ave": 431,
      "</w>és": 432,
      "</w>de": 433,
      "ma": 434,
      "pro": 435,
      "</w>ke": 436,
      "by": 437,
      "don": 438,
      "</w>mb": 439,
      "ab": 440,
      "si": 441,
      "no": 442,
      "</w>un": 443,
      "fe": 444,
      "pe": 445,
      "nous": 446,
      "tout": 447,
      "</w>oun": 448,
      "</w>age": 449,
      "</w>ight": 450,
      "</w>ite": 451,
      "</w>ille": 452,
      "</w>aid": 453,
      "</w>si": 454,
      "cet": 455,
      "they": 456,
      "</w>tr": 457,
      "or": 458,
      "</w>ong": 459,
      "</w>ue": 460,
      "</w>ore": 461,
      "</w>ine": 462,
      "</w>oug": 463,
      "</w>able": 464,
      "man": 465,
      "am": 466,
      "</w>ère": 467,
      "</w>ouv": 468,
      "do": 469,
      "</w>ond": 470,
      "ré": 471,
      "from": 472,
      "</w>pe": 473,
      "avec": 474,
      "mar": 475,
      "</w>ier": 476,
      "up": 477,
      "</w>iv": 478,
      "po": 479,
      "who": 480,
      "ro": 481,
      "br": 482,
      "said": 483,
      "were": 484,
      "app": 485,
      "dit": 486,
      "</w>ons": 487,
      "</w>sel": 488,
      "</w>cc": 489,
      "</w>ence": 490,
      "</w>li": 491,
      "cette": 492,
      "</w>ord": 493,
      "one": 494,
      "</w>aire": 495,
      "</w>av": 496,
      "</w>uis": 497,
      ",\"": 498,
      "</w>th": 499,
      "would": 500,
      "</w>ust": 501,
      "ou": 502,
      "</w>ame": 503,
      "</w>elle": 504,
      "</w>ance": 505,
      "som": 506,
      "</w>ast": 507,
      "</w>ace": 508,
      "bien": 509,
      "comme": 510,
      "</w>ér": 511,
      "there": 512,
      "te": 513,
      "</w>ble": 514,
      "</w>ind": 515,
      "ses": 516,
      "</w>urs": 517,
      "co": 518,
      "</w>ions": 519,
      "cl": 520,
      "aut": 521,
      "what": 522,
      "</w>ert": 523,
      "fo": 524,
      "ag": 525,
      "</w>ès": 526,
      "</w>ck": 527,
      "ser": 528,
      "</w>self": 529,
      "int": 530,
      "</w>int": 531,
      "</w>ound": 532,
      "them": 533,
      "</w>ors": 534,
      "</w>oir": 535,
      "</w>ven": 536,
      "go": 537,
      "pass": 538,
      "</w>mes": 539,
      "car": 540,
      "</w>are": 541,
      "</w>ist": 542,
      "mad": 543,
      "</w>ide": 544,
      "</w>ang": 545,
      "lo": 546,
      "</w>use": 547,
      "quel": 548,
      "comp": 549,
      "when": 550,
      "</w>ach": 551,
      "</w>art": 552,
      "see": 553,
      "per": 554,
      "ad": 555,
      "if": 556,
      "out": 557,
      "</w>ate": 558,
      "ver": 559,
      "</w>iss": 560,
      "</w>ci": 561,
      "?\"": 562,
      "long": 563,
      "part": 564,
      "</w>les": 565,
      "</w>if": 566,
      "</w>onn": 567,
      "</w>ood": 568,
      "</w>ens": 569,
      "</w>ive": 570,
      "</w>itt": 571,
      "</w>agn": 572,
      "éc": 573,
      "their": 574,
      "then": 575,
      "will": 576,
      "</w>che": 577,
      "</w>ours": 578,
      "rep": 579,
      "could": 580,
      "es": 581,
      "</w>um": 582,
      "tou": 583,
      "been": 584,
      "ils": 585,
      "sp": 586,
      "hom": 587,
      "</w>ak": 588,
      "cr": 589,
      "</w>ish": 590,
      "tw": 591,
      "</w>ile": 592,
      "ob": 593,
      "moi": 594,
      "are": 595,
      "</w>der": 596,
      "</w>ice": 597,
      "dev": 598,
      "bl": 599,
      "bo": 600,
      "ret": 601,
      "imp": 602,
      "pre": 603,
      "che": 604,
      "</w>oup": 605,
      "</w>ise": 606,
      "</w>ose": 607,
      "</w>ked": 608,
      "ces": 609,
      "your": 610,
      "grand": 611,
      "deux": 612,
      "!\"": 613,
      "rép": 614,
      "</w>anc": 615,
      "</w>reat": 616,
      "res": 617,
      "</w>tend": 618,
      "</w>ign": 619,
      "</w>ass": 620,
      "di": 621,
      "</w>ité": 622,
      "sans": 623,
      "</w>pt": 624,
      "more": 625,
      "</w>ough": 626,
      "</w>aut": 627,
      "reg": 628,
      "</w>ime": 629,
      "fait": 630,
      "can": 631,
      "</w>ins": 632,
      "af": 633,
      "acc": 634,
      "mê": 635,
      "cont": 636,
      "</w>urn": 637,
      "rem": 638,
      "some": 639,
      "very": 640,
      "dou": 641,
      "être": 642,
      "us": 643,
      "dem": 644,
      "ever": 645,
      "</w>ôt": 646,
      "</w>ack": 647,
      "</w>ées": 648,
      "</w>une": 649,
      "main": 650,
      "</w>uit": 651,
      "bon": 652,
      "fl": 653,
      "char": 654,
      "cour": 655,
      "kn": 656,
      "day": 657,
      "cap": 658,
      "</w>ought": 659,
      "off": 660,
      "</w>enc": 661,
      "</w>hing": 662,
      "</w>ies": 663,
      "</w>op": 664,
      "enc": 665,
      "</w>led": 666,
      "into": 667,
      "puis": 668,
      "ter": 669,
      "</w>aiss": 670,
      "mom": 671,
      "ai": 672,
      "</w>oul": 673,
      "</w>air": 674,
      "moment": 675,
      "</w>ante": 676,
      "</w>mo": 677,
      "même": 678,
      "cro": 679,
      "</w>he": 680,
      "</w>ques": 681,
      "</w>ese": 682,
      "any": 683,
      "tro": 684,
      "</w>own": 685,
      "ye": 686,
      "</w>ity": 687,
      "</w>one": 688,
      "let": 689,
      "enf": 690,
      "</w>ave": 691,
      "fut": 692,
      "did": 693,
      "</w>ner": 694,
      "</w>med": 695,
      "rec": 696,
      "again": 697,
      "</w>ures": 698,
      "</w>ches": 699,
      "</w>ont": 700,
      "now": 701,
      "</w>ft": 702,
      "how": 703,
      "faire": 704,
      "</w>ieur": 705,
      "point": 706,
      "art": 707,
      "two": 708,
      "dire": 709,
      "litt": 710,
      "</w>app": 711,
      "où": 712,
      "comm": 713,
      "</w>ved": 714,
      "cel": 715,
      "than": 716,
      "</w>ale": 717,
      "upon": 718,
      "made": 719,
      "like": 720,
      "</w>ud": 721,
      "little": 722,
      "cons": 723,
      "hand": 724,
      "peu": 725,
      "</w>way": 726,
      "</w>fore": 727,
      "</w>lles": 728,
      "temp": 729,
      "arri": 730,
      "time": 731,
      "leur": 732,
      "</w>ût": 733,
      "cri": 734,
      "</w>ely": 735,
      "after": 736,
      "</w>ction": 737,
      "</w>ière": 738,
      "aux": 739,
      "too": 740,
      "</w>vers": 741,
      "has": 742,
      "</w>ieu": 743,
      "loo": 744,
      "</w>wn": 745,
      "over": 746,
      "</w>aine": 747,
      "dr": 748,
      "fort": 749,
      "</w>per": 750,
      "only": 751,
      "str": 752,
      "</w>..": 753,
      "</w>ree": 754,
      "regard": 755,
      "pos": 756,
      "well": 757,
      "</w>aux": 758,
      "aus": 759,
      "our": 760,
      "should": 761,
      "gl": 762,
      "mr": 763,
      "</w>endant": 764,
      "ven": 765,
      "</w>king": 766,
      "autre": 767,
      "</w>ix": 768,
      "</w>orte": 769,
      "pet": 770,
      "vie": 771,
      "sc": 772,
      "mons": 773,
      "</w>endre": 774,
      "homme": 775,
      "quand": 776,
      "say": 777,
      "là": 778,
      "</w>ther": 779,
      "encore": 780,
      "port": 781,
      "aff": 782,
      "</w>ied": 783,
      "monsieur": 784,
      "mat": 785,
      "im": 786,
      "</w>ated": 787,
      "fir": 788,
      "sec": 789,
      "great": 790,
      "mal": 791,
      "</w>bre": 792,
      "these": 793,
      "know": 794,
      "about": 795,
      "jour": 796,
      "</w>rent": 797,
      "</w>ten": 798,
      "</w>tes": 799,
      "emp": 800,
      "eff": 801,
      "jul": 802,
      "répond": 803,
      "every": 804,
      "tu": 805,
      "himself": 806,
      "pers": 807,
      "pré": 808,
      "</w>other": 809,
      "</w>ather": 810,
      "été": 811,
      "before": 812,
      "mil": 813,
      "julien": 814,
      "</w>én": 815,
      "wor": 816,
      "ey": 817,
      "sent": 818,
      "</w>oy": 819,
      "cor": 820,
      "fri": 821,
      "</w>ique": 822,
      "inst": 823,
      "even": 824,
      "</w>ants": 825,
      "</w>ez": 826,
      "</w>agnan": 827,
      "other": 828,
      "artagnan": 829,
      "pouv": 830,
      "good": 831,
      "air": 832,
      "ass": 833,
      "mes": 834,
      "</w>fe": 835,
      "</w>près": 836,
      "demand": 837,
      "jam": 838,
      "jus": 839,
      "down": 840,
      "</w>ments": 841,
      "att": 842,
      "thought": 843,
      "inc": 844,
      "exp": 845,
      "</w>cher": 846,
      "pres": 847,
      "tous": 848,
      "</w>pect": 849,
      "its": 850,
      "ép": 851,
      "étaient": 852,
      "aussi": 853,
      "never": 854,
      "</w>ars": 855,
      "</w>min": 856,
      "</w>ail": 857,
      "</w>ois": 858,
      "dont": 859,
      "fem": 860,
      "</w>ret": 861,
      "must": 862,
      "cert": 863,
      "without": 864,
      "</w>ule": 865,
      "</w>ings": 866,
      "vis": 867,
      "aur": 868,
      "rien": 869,
      "vot": 870,
      "</w>mbl": 871,
      "quelque": 872,
      "come": 873,
      "ple": 874,
      "alors": 875,
      "</w>ady": 876,
      "avoir": 877,
      "</w>ête": 878,
      "</w>ug": 879,
      "</w>ally": 880,
      "</w>onne": 881,
      "votre": 882,
      "</w>ving": 883,
      "mer": 884,
      "cela": 885,
      "fer": 886,
      "first": 887,
      "donc": 888,
      "ph": 889,
      "</w>ary": 890,
      "min": 891,
      "coup": 892,
      "</w>ious": 893,
      "voy": 894,
      "op": 895,
      "après": 896,
      "</w>ward": 897,
      "bet": 898,
      "</w>ouse": 899,
      "mu": 900,
      "</w>ient": 901,
      "</w>act": 902,
      "</w>ath": 903,
      "</w>éri": 904,
      "toute": 905,
      "</w>eur": 906,
      "</w>ieux": 907,
      "</w>ét": 908,
      "ve": 909,
      "</w>ep": 910,
      "</w>ness": 911,
      "</w>red": 912,
      "</w>ty": 913,
      "temps": 914,
      "dep": 915,
      "under": 916,
      "trou": 917,
      "sm": 918,
      "such": 919,
      "</w>hos": 920,
      "just": 921,
      "wat": 922,
      "cal": 923,
      "place": 924,
      "entre": 925,
      "ind": 926,
      "went": 927,
      "sous": 928,
      "ho": 929,
      "</w>èrent": 930,
      "</w>ps": 931,
      "where": 932,
      "contin": 933,
      "gu": 934,
      "prof": 935,
      "</w>itu": 936,
      "</w>tain": 937,
      "rest": 938,
      "came": 939,
      "fab": 940,
      "jamais": 941,
      "back": 942,
      "sou": 943,
      "bec": 944,
      "avais": 945,
      "</w>aî": 946,
      "</w>we": 947,
      "dés": 948,
      "</w>gr": 949,
      "</w>ition": 950,
      "inter": 951,
      "</w>ince": 952,
      "pu": 953,
      "</w>sible": 954,
      "</w>llow": 955,
      "</w>ake": 956,
      "</w>orm": 957,
      "</w>ared": 958,
      "end": 959,
      "entend": 960,
      "non": 961,
      "</w>ern": 962,
      "</w>ered": 963,
      "nothing": 964,
      "</w>ened": 965,
      "trouv": 966,
      "peut": 967,
      "fabri": 968,
      "beg": 969,
      "</w>ations": 970,
      "</w>ange": 971,
      "trois": 972,
      "ten": 973,
      "fin": 974,
      "sort": 975,
      "much": 976,
      "parl": 977,
      "</w>cl": 978,
      "</w>ts": 979,
      "heure": 980,
      "sil": 981,
      "ins": 982,
      "col": 983,
      "fois": 984,
      "</w>omp": 985,
      "met": 986,
      "fit": 987,
      "</w>up": 988,
      "cham": 989,
      "</w>ful": 990,
      "hor": 991,
      "way": 992,
      "thin": 993,
      "</w>rait": 994,
      "</w>ade": 995,
      "bel": 996,
      "occ": 997,
      "mor": 998,
      "spe": 999,
      "conf": 1000,
      "last": 1001,
      "house": 1002,
      "pri": 1003,
      "</w>be": 1004,
      "fais": 1005,
      "vi": 1006,
      "</w>ves": 1007,
      "eyes": 1008,
      "men": 1009,
      "might": 1010,
      "pens": 1011,
      "</w>ning": 1012,
      "</w>ks": 1013,
      "yeux": 1014,
      "mis": 1015,
      "</w>vre": 1016,
      "</w>ents": 1017,
      "quelques": 1018,
      "supp": 1019,
      "put": 1020,
      "</w>ght": 1021,
      "</w>par": 1022,
      "vers": 1023,
      "</w>ente": 1024,
      "still": 1025,
      "</w>ng": 1026,
      "cou": 1027,
      "</w>yr": 1028,
      "</w>ult": 1029,
      "femme": 1030,
      "har": 1031,
      "dist": 1032,
      "ans": 1033,
      "ain": 1034,
      "ac": 1035,
      "prem": 1036,
      "</w>iers": 1037,
      "young": 1038,
      "nat": 1039,
      "here": 1040,
      "</w>oth": 1041,
      "shall": 1042,
      "head": 1043,
      "</w>éd": 1044,
      "ainsi": 1045,
      "eng": 1046,
      "serv": 1047,
      "wom": 1048,
      "jo": 1049,
      "ref": 1050,
      "</w>oi": 1051,
      "make": 1052,
      "</w>ry": 1053,
      "tre": 1054,
      "sav": 1055,
      "word": 1056,
      "voir": 1057,
      "inf": 1058,
      "</w>ouve": 1059,
      "</w>ect": 1060,
      "continu": 1061,
      "</w>êt": 1062,
      "ri": 1063,
      "</w>prit": 1064,
      "entr": 1065,
      "répondit": 1066,
      "ca": 1067,
      "jusqu": 1068,
      "</w>dy": 1069,
      "sir": 1070,
      "notre": 1071,
      "</w>ger": 1072,
      "suis": 1073,
      "bar": 1074,
      "found": 1075,
      "</w>ages": 1076,
      "tour": 1077,
      "arr": 1078,
      "petit": 1079,
      "three": 1080,
      "cond": 1081,
      "arriv": 1082,
      "madame": 1083,
      "face": 1084,
      "</w>cle": 1085,
      "ni": 1086,
      "turn": 1087,
      "</w>jours": 1088,
      "lar": 1089,
      "</w>urent": 1090,
      "</w>ase": 1091,
      "pris": 1092,
      "écri": 1093,
      "toujours": 1094,
      "bri": 1095,
      "</w>gn": 1096,
      "</w>sez": 1097,
      "</w>lied": 1098,
      "</w>oud": 1099,
      "mot": 1100,
      "avaient": 1101,
      "being": 1102,
      "thr": 1103,
      "room": 1104,
      "voul": 1105,
      "toutes": 1106,
      "certain": 1107,
      "nom": 1108,
      "friend": 1109,
      "</w>elt": 1110,
      "</w>iz": 1111,
      "prop": 1112,
      "hab": 1113,
      "arm": 1114,
      "</w>ild": 1115,
      "ke": 1116,
      "rou": 1117,
      "old": 1118,
      "</w>iè": 1119,
      "env": 1120,
      "jeune": 1121,
      "pendant": 1122,
      "bes": 1123,
      "</w>row": 1124,
      "away": 1125,
      "porte": 1126,
      "appe": 1127,
      "</w>bl": 1128,
      ",'": 1129,
      "</w>mer": 1130,
      "obs": 1131,
      "may": 1132,
      "saw": 1133,
      "gen": 1134,
      "laiss": 1135,
      "</w>land": 1136,
      "oh": 1137,
      "</w>bert": 1138,
      "déc": 1139,
      "diff": 1140,
      "</w>ock": 1141,
      "</w>ât": 1142,
      "eût": 1143,
      "lors": 1144,
      "</w>ull": 1145,
      "four": 1146,
      "</w>ett": 1147,
      "left": 1148,
      "bas": 1149,
      "leurs": 1150,
      "attend": 1151,
      "avant": 1152,
      "fall": 1153,
      "seule": 1154,
      "</w>aint": 1155,
      "replied": 1156,
      "take": 1157,
      "sal": 1158,
      "gard": 1159,
      "penc": 1160,
      "gent": 1161,
      "</w>igh": 1162,
      "moins": 1163,
      "</w>thing": 1164,
      "</w>ues": 1165,
      "ah": 1166,
      "</w>rit": 1167,
      "pencro": 1168,
      "yes": 1169,
      "heures": 1170,
      "mas": 1171,
      "six": 1172,
      "night": 1173,
      "cher": 1174,
      "</w>ip": 1175,
      "dar": 1176,
      "esp": 1177,
      "</w>ros": 1178,
      "felt": 1179,
      "</w>ense": 1180,
      "hun": 1181,
      "took": 1182,
      "</w>io": 1183,
      "those": 1184,
      "chose": 1185,
      "avez": 1186,
      "donn": 1187,
      "prom": 1188,
      "hard": 1189,
      "beau": 1190,
      "sont": 1191,
      "</w>ég": 1192,
      "</w>igne": 1193,
      "</w>vent": 1194,
      "autres": 1195,
      "emb": 1196,
      "</w>ession": 1197,
      "</w>ets": 1198,
      "oui": 1199,
      "</w>ily": 1200,
      "once": 1201,
      "</w>illes": 1202,
      "most": 1203,
      "through": 1204,
      "wind": 1205,
      "while": 1206,
      "faut": 1207,
      "sembl": 1208,
      "</w>ane": 1209,
      "cent": 1210,
      "rais": 1211,
      "tête": 1212,
      "conn": 1213,
      "</w>ienne": 1214,
      "très": 1215,
      "life": 1216,
      "think": 1217,
      "</w>rai": 1218,
      "pay": 1219,
      "fam": 1220,
      "mort": 1221,
      "soon": 1222,
      "rel": 1223,
      "ste": 1224,
      "</w>man": 1225,
      "sl": 1226,
      "</w>ru": 1227,
      "devant": 1228,
      "far": 1229,
      "</w>temp": 1230,
      "ord": 1231,
      "étais": 1232,
      "tri": 1233,
      "</w>uss": 1234,
      "ent": 1235,
      "</w>ished": 1236,
      "happ": 1237,
      "bou": 1238,
      "sub": 1239,
      "</w>ces": 1240,
      "sat": 1241,
      "vol": 1242,
      "seemed": 1243,
      "haut": 1244,
      "disc": 1245,
      "coun": 1246,
      "return": 1247,
      "</w>oire": 1248,
      ".'": 1249,
      "ren": 1250,
      "</w>eld": 1251,
      "dép": 1252,
      "cur": 1253,
      "</w>let": 1254,
      "own": 1255,
      "athos": 1256,
      "tak": 1257,
      "going": 1258,
      "rev": 1259,
      "suiv": 1260,
      "</w>erv": 1261,
      "depuis": 1262,
      "</w>ever": 1263,
      "</w>ris": 1264,
      "mme": 1265,
      "mur": 1266,
      "...": 1267,
      "pied": 1268,
      "</w>aque": 1269,
      "myself": 1270,
      "enfin": 1271,
      "sour": 1272,
      "heart": 1273,
      "instant": 1274,
      "woman": 1275,
      "pouvait": 1276,
      "</w>nes": 1277,
      "rés": 1278,
      "quat": 1279,
      "kne": 1280,
      "</w>cess": 1281,
      "hal": 1282,
      "déj": 1283,
      "chap": 1284,
      "grande": 1285,
      "tell": 1286,
      "cin": 1287,
      "quest": 1288,
      "</w>ained": 1289,
      "asked": 1290,
      "maî": 1291,
      "cam": 1292,
      "</w>ze": 1293,
      "somet": 1294,
      "</w>ils": 1295,
      "</w>orter": 1296,
      "trop": 1297,
      "desc": 1298,
      "dess": 1299,
      "</w>ra": 1300,
      "</w>ple": 1301,
      "</w>ether": 1302,
      "dro": 1303,
      "mainten": 1304,
      "door": 1305,
      "</w>mber": 1306,
      "capit": 1307,
      "having": 1308,
      "contre": 1309,
      "fille": 1310,
      "chez": 1311,
      "yet": 1312,
      "auc": 1313,
      "prés": 1314,
      "ang": 1315,
      "</w>ick": 1316,
      "cried": 1317,
      "tra": 1318,
      "terre": 1319,
      "soir": 1320,
      "sign": 1321,
      "cle": 1322,
      "nature": 1323,
      "sim": 1324,
      "conse": 1325,
      "captain": 1326,
      "</w>imes": 1327,
      "</w>ched": 1328,
      "él": 1329,
      "paris": 1330,
      "bre": 1331,
      "red": 1332,
      "love": 1333,
      "abs": 1334,
      "minut": 1335,
      "</w>pris": 1336,
      "land": 1337,
      "</w>anger": 1338,
      "</w>--": 1339,
      "ann": 1340,
      "</w>gg": 1341,
      "</w>ott": 1342,
      "</w>ette": 1343,
      "new": 1344,
      "id": 1345,
      "</w>ardin": 1346,
      ".»": 1347,
      "same": 1348,
      "</w>eth": 1349,
      "</w>wards": 1350,
      "heard": 1351,
      "</w>els": 1352,
      "</w>tered": 1353,
      "suff": 1354,
      "bro": 1355,
      "near": 1356,
      "</w>ways": 1357,
      "ir": 1358,
      "</w>çon": 1359,
      "follow": 1360,
      "</w>itude": 1361,
      "</w>iez": 1362,
      "</w>du": 1363,
      "light": 1364,
      "hands": 1365,
      "mé": 1366,
      "table": 1367,
      "monde": 1368,
      "voix": 1369,
      "tant": 1370,
      "appro": 1371,
      "</w>ber": 1372,
      "another": 1373,
      "elles": 1374,
      "</w>ole": 1375,
      "ben": 1376,
      "</w>ables": 1377,
      "give": 1378,
      "hum": 1379,
      "ég": 1380,
      "del": 1381,
      "souv": 1382,
      "maintenant": 1383,
      "côt": 1384,
      "told": 1385,
      "quatre": 1386,
      "nuit": 1387,
      "</w>vres": 1388,
      "comment": 1389,
      "</w>ian": 1390,
      "</w>ention": 1391,
      "cyr": 1392,
      "assez": 1393,
      "bu": 1394,
      "év": 1395,
      "</w>ced": 1396,
      "</w>ome": 1397,
      "looked": 1398,
      "fa": 1399,
      "</w>hed": 1400,
      "adm": 1401,
      "cyrus": 1402,
      "dur": 1403,
      "jours": 1404,
      "</w>ré": 1405,
      "</w>aps": 1406,
      "</w>ances": 1407,
      "gri": 1408,
      "</w>pendant": 1409,
      "against": 1410,
      "</w>esse": 1411,
      "mont": 1412,
      "sais": 1413,
      "sol": 1414,
      "though": 1415,
      "eut": 1416,
      "rapp": 1417,
      "find": 1418,
      "</w>aud": 1419,
      "</w>cept": 1420,
      "pol": 1421,
      "</w>ible": 1422,
      "</w>aw": 1423,
      "cependant": 1424,
      "bat": 1425,
      "gentle": 1426,
      "began": 1427,
      "</w>essed": 1428,
      "fix": 1429,
      "</w>icul": 1430,
      "</w>rew": 1431,
      "</w>aill": 1432,
      "</w>less": 1433,
      "</w>ters": 1434,
      "ear": 1435,
      "lev": 1436,
      "wr": 1437,
      "</w>ys": 1438,
      "</w>uer": 1439,
      "ap": 1440,
      "water": 1441,
      "herself": 1442,
      "tal": 1443,
      "speak": 1444,
      "</w>ph": 1445,
      "</w>cy": 1446,
      "jet": 1447,
      "whom": 1448,
      "</w>ides": 1449,
      "</w>ma": 1450,
      "add": 1451,
      "pier": 1452,
      "always": 1453,
      "</w>tres": 1454,
      "seul": 1455,
      "silence": 1456,
      "chambre": 1457,
      "child": 1458,
      "pau": 1459,
      "éch": 1460,
      "large": 1461,
      "want": 1462,
      "</w>den": 1463,
      "chev": 1464,
      "rend": 1465,
      "fig": 1466,
      "mid": 1467,
      "eh": 1468,
      "few": 1469,
      "près": 1470,
      "half": 1471,
      "conv": 1472,
      "betwe": 1473,
      "ci": 1474,
      "aim": 1475,
      "between": 1476,
      "beh": 1477,
      "</w>od": 1478,
      "answ": 1479,
      "why": 1480,
      "sud": 1481,
      "lat": 1482,
      "get": 1483,
      "voil": 1484,
      "</w>ither": 1485,
      "</w>men": 1486,
      "mari": 1487,
      "écria": 1488,
      "</w>ople": 1489,
      "</w>ouss": 1490,
      "</w>ience": 1491,
      "esc": 1492,
      "look": 1493,
      "</w>tement": 1494,
      "fro": 1495,
      "</w>ilet": 1496,
      "ru": 1497,
      "plac": 1498,
      "serait": 1499,
      "dern": 1500,
      "prov": 1501,
      "maison": 1502,
      "</w>ory": 1503,
      "</w>og": 1504,
      "</w>ident": 1505,
      "each": 1506,
      "quite": 1507,
      "ouv": 1508,
      "capitaine": 1509,
      "</w>oc": 1510,
      "</w>lev": 1511,
      "round": 1512,
      "fond": 1513,
      "sea": 1514,
      "hon": 1515,
      "</w>quer": 1516,
      "dieu": 1517,
      "march": 1518,
      "nouve": 1519,
      "seen": 1520,
      "sing": 1521,
      "consid": 1522,
      "miss": 1523,
      "</w>iness": 1524,
      "</w>ots": 1525,
      "extr": 1526,
      "</w>ause": 1527,
      "form": 1528,
      "days": 1529,
      "giv": 1530,
      "disp": 1531,
      "bout": 1532,
      "mind": 1533,
      "</w>iens": 1534,
      "</w>onde": 1535,
      "evening": 1536,
      "faisait": 1537,
      "question": 1538,
      "ici": 1539,
      "</w>liz": 1540,
      "</w>ines": 1541,
      "right": 1542,
      "exc": 1543,
      "rece": 1544,
      "morning": 1545,
      "</w>ié": 1546,
      "</w>ume": 1547,
      "inde": 1548,
      "</w>mble": 1549,
      "people": 1550,
      "</w>lig": 1551,
      "open": 1552,
      "inv": 1553,
      "many": 1554,
      "possible": 1555,
      "milady": 1556,
      "</w>bt": 1557,
      "</w>iment": 1558,
      "</w>ouver": 1559,
      "</w>ating": 1560,
      "compan": 1561,
      "anim": 1562,
      "hommes": 1563,
      "poor": 1564,
      "</w>irent": 1565,
      "contr": 1566,
      "</w>em": 1567,
      "</w>anch": 1568,
      "</w>asse": 1569,
      "side": 1570,
      "gave": 1571,
      "bonne": 1572,
      "island": 1573,
      "travers": 1574,
      "sw": 1575,
      "viv": 1576,
      "</w>rible": 1577,
      "knew": 1578,
      "eliz": 1579,
      "work": 1580,
      "eux": 1581,
      "</w>ib": 1582,
      "petite": 1583,
      "</w>its": 1584,
      "</w>haps": 1585,
      "</w>ats": 1586,
      "perhaps": 1587,
      "</w>fois": 1588,
      "</w>ject": 1589,
      "</w>érie": 1590,
      "em": 1591,
      "ont": 1592,
      "however": 1593,
      "</w>ilus": 1594,
      "prince": 1595,
      "</w>aires": 1596,
      "expl": 1597,
      "</w>ying": 1598,
      "</w>ged": 1599,
      "</w>autilus": 1600,
      "</w>az": 1601,
      "peine": 1602,
      "écl": 1603,
      "father": 1604,
      "vent": 1605,
      "</w>ried": 1606,
      "impos": 1607,
      "cinq": 1608,
      "const": 1609,
      "tomb": 1610,
      "fabrice": 1611,
      "</w>zio": 1612,
      "</w>xt": 1613,
      "</w>ank": 1614,
      "cir": 1615,
      "personne": 1616,
      "</w>oses": 1617,
      "fabrizio": 1618,
      "quoi": 1619,
      "pleas": 1620,
      "eau": 1621,
      "mille": 1622,
      "côté": 1623,
      "</w>abeth": 1624,
      "since": 1625,
      "aper": 1626,
      "parler": 1627,
      "imag": 1628,
      "belie": 1629,
      "</w>ired": 1630,
      "</w>most": 1631,
      "pat": 1632,
      "enough": 1633,
      "wal": 1634,
      "doute": 1635,
      "reconn": 1636,
      "elizabeth": 1637,
      "arg": 1638,
      "voice": 1639,
      "</w>ined": 1640,
      "cardin": 1641,
      "franc": 1642,
      "bras": 1643,
      "</w>anç": 1644,
      "vit": 1645,
      "feu": 1646,
      "aurait": 1647,
      "low": 1648,
      "cardinal": 1649,
      "feel": 1650,
      "</w>inc": 1651,
      "whole": 1652,
      "matin": 1653,
      "</w>ains": 1654,
      "passed": 1655,
      "</w>ieurs": 1656,
      "rap": 1657,
      "prendre": 1658,
      "</w>usement": 1659,
      "ving": 1660,
      "eu": 1661,
      "</w>issait": 1662,
      "act": 1663,
      "</w>pped": 1664,
      "</w>osed": 1665,
      "second": 1666,
      "minutes": 1667,
      "retour": 1668,
      "compr": 1669,
      "vrai": 1670,
      "</w>eng": 1671,
      "fogg": 1672,
      "gir": 1673,
      "</w>selves": 1674,
      "things": 1675,
      "mother": 1676,
      "celui": 1677,
      "jane": 1678,
      "remar": 1679,
      "</w>ured": 1680,
      "disait": 1681,
      "because": 1682,
      "seulement": 1683,
      "</w>ia": 1684,
      "</w>ress": 1685,
      "compagn": 1686,
      "dom": 1687,
      "</w>outh": 1688,
      "five": 1689,
      "name": 1690,
      "aller": 1691,
      "</w>ton": 1692,
      "</w>aise": 1693,
      "</w>él": 1694,
      "master": 1695,
      "demanda": 1696,
      "</w>owed": 1697,
      "world": 1698,
      "wait": 1699,
      "</w>iter": 1700,
      "</w>aul": 1701,
      "adv": 1702,
      "doubt": 1703,
      "sé": 1704,
      "read": 1705,
      "</w>aille": 1706,
      "done": 1707,
      "gros": 1708,
      "trav": 1709,
      "charles": 1710,
      "nu": 1711,
      "words": 1712,
      "maître": 1713,
      "sau": 1714,
      "</w>coup": 1715,
      "stre": 1716,
      "trans": 1717,
      "</w>ived": 1718,
      "ami": 1719,
      "passe": 1720,
      "pal": 1721,
      "set": 1722,
      "fac": 1723,
      "gar": 1724,
      "</w>als": 1725,
      "chaque": 1726,
      "</w>ham": 1727,
      "window": 1728,
      "fur": 1729,
      "god": 1730,
      "nos": 1731,
      "effet": 1732,
      "lieu": 1733,
      "donner": 1734,
      "hour": 1735,
      "</w>dred": 1736,
      "</w>ling": 1737,
      "</w>ently": 1738,
      "hundred": 1739,
      "order": 1740,
      "nor": 1741,
      "mieux": 1742,
      "ide": 1743,
      "déjà": 1744,
      "whose": 1745,
      "mus": 1746,
      "</w>quet": 1747,
      "souff": 1748,
      "milieu": 1749,
      "lorsque": 1750,
      "beaucoup": 1751,
      "vingt": 1752,
      "</w>so": 1753,
      "thing": 1754,
      "feet": 1755,
      "saint": 1756,
      "appar": 1757,
      "</w>vered": 1758,
      "rê": 1759,
      "towards": 1760,
      "voilà": 1761,
      "êtes": 1762,
      "bour": 1763,
      "porthos": 1764,
      "dix": 1765,
      "</w>ément": 1766,
      "</w>ister": 1767,
      "cand": 1768,
      "fat": 1769,
      "gre": 1770,
      "</w>oule": 1771,
      "expr": 1772,
      "</w>ted": 1773,
      "pi": 1774,
      "plais": 1775,
      "circ": 1776,
      "accomp": 1777,
      "</w>uses": 1778,
      "convers": 1779,
      "</w>bo": 1780,
      "longer": 1781,
      "leave": 1782,
      "something": 1783,
      "got": 1784,
      "high": 1785,
      "mains": 1786,
      "beaut": 1787,
      "</w>fort": 1788,
      "bed": 1789,
      "brought": 1790,
      "pen": 1791,
      "sk": 1792,
      "devait": 1793,
      "hear": 1794,
      "esprit": 1795,
      "pieds": 1796,
      "oblig": 1797,
      "</w>cip": 1798,
      "everything": 1799,
      "girl": 1800,
      "also": 1801,
      "mrs": 1802,
      "years": 1803,
      "reven": 1804,
      "crois": 1805,
      "king": 1806,
      "cas": 1807,
      "déf": 1808,
      "dessus": 1809,
      "ill": 1810,
      "</w>ley": 1811,
      "inqu": 1812,
      "</w>day": 1813,
      "indeed": 1814,
      "étr": 1815,
      "</w>ove": 1816,
      "allait": 1817,
      "pap": 1818,
      "</w>onc": 1819,
      "marqu": 1820,
      "trouver": 1821,
      "viol": 1822,
      "turned": 1823,
      "sudden": 1824,
      "less": 1825,
      "venait": 1826,
      "route": 1827,
      "imm": 1828,
      "full": 1829,
      "almost": 1830,
      "perm": 1831,
      "taken": 1832,
      "</w>anqu": 1833,
      "</w>ready": 1834,
      "underst": 1835,
      "jou": 1836,
      "reprit": 1837,
      "île": 1838,
      "already": 1839,
      "</w>aître": 1840,
      "vu": 1841,
      "ay": 1842,
      "arch": 1843,
      "marg": 1844,
      "gens": 1845,
      "next": 1846,
      "sure": 1847,
      "aj": 1848,
      "pauvre": 1849,
      "</w>ife": 1850,
      "</w>heur": 1851,
      "conseil": 1852,
      "perd": 1853,
      "care": 1854,
      "</w>ting": 1855,
      "exam": 1856,
      "dre": 1857,
      "vér": 1858,
      "père": 1859,
      "</w>ém": 1860,
      "</w>enty": 1861,
      "occup": 1862,
      "forg": 1863,
      "abord": 1864,
      "val": 1865,
      "</w>uite": 1866,
      "dear": 1867,
      "figure": 1868,
      "bord": 1869,
      "nemo": 1870,
      "charm": 1871,
      "</w>antes": 1872,
      "ge": 1873,
      "tir": 1874,
      "</w>try": 1875,
      "</w>enir": 1876,
      "pencroft": 1877,
      "better": 1878,
      "pencroff": 1879,
      "</w>ilett": 1880,
      "</w>wh": 1881,
      "choses": 1882,
      "chemin": 1883,
      "quar": 1884,
      "</w>ached": 1885,
      "fus": 1886,
      "ris": 1887,
      "both": 1888,
      "fire": 1889,
      "war": 1890,
      "soit": 1891,
      "</w>oles": 1892,
      "</w>ately": 1893,
      "heav": 1894,
      "presque": 1895,
      "</w>isf": 1896,
      "least": 1897,
      "black": 1898,
      "</w>ey": 1899,
      "appeared": 1900,
      "marguer": 1901,
      "loin": 1902,
      "</w>quel": 1903,
      "gener": 1904,
      "</w>ength": 1905,
      "</w>amis": 1906,
      "dark": 1907,
      "coll": 1908,
      "fût": 1909,
      "ut": 1910,
      "premier": 1911,
      "marguerite": 1912,
      "el": 1913,
      "</w>leur": 1914,
      "voyage": 1915,
      "</w>ards": 1916,
      "</w>ield": 1917,
      "opp": 1918,
      "alone": 1919,
      "impossible": 1920,
      "</w>jet": 1921,
      "bient": 1922,
      "gal": 1923,
      "bientôt": 1924,
      "gén": 1925,
      "</w>ution": 1926,
      "enfant": 1927,
      "fine": 1928,
      "aramis": 1929,
      "exist": 1930,
      "anything": 1931,
      "spo": 1932,
      "lady": 1933,
      "among": 1934,
      "</w>quoi": 1935,
      "satisf": 1936,
      "simple": 1937,
      "pourquoi": 1938,
      "roches": 1939,
      "sang": 1940,
      "force": 1941,
      "passer": 1942,
      "keep": 1943,
      "</w>bres": 1944,
      "called": 1945,
      "occas": 1946,
      "succ": 1947,
      "bal": 1948,
      "</w>iste": 1949,
      "</w>orth": 1950,
      "ju": 1951,
      "soup": 1952,
      "dét": 1953,
      "</w>ement": 1954,
      "eas": 1955,
      "offic": 1956,
      "</w>rir": 1957,
      "</w>ason": 1958,
      "étienne": 1959,
      "quelle": 1960,
      "semblait": 1961,
      "der": 1962,
      "</w>enait": 1963,
      "comb": 1964,
      "smith": 1965,
      "bois": 1966,
      "meme": 1967,
      "does": 1968,
      "amour": 1969,
      "</w>ific": 1970,
      "vois": 1971,
      "kind": 1972,
      "clock": 1973,
      "conversation": 1974,
      "tend": 1975,
      "laug": 1976,
      "wish": 1977,
      "reco": 1978,
      "</w>ourd": 1979,
      "ll": 1980,
      "</w>ousand": 1981,
      "pays": 1982,
      "gran": 1983,
      "twenty": 1984,
      "celle": 1985,
      "hur": 1986,
      "</w>illeurs": 1987,
      "francs": 1988,
      "thousand": 1989,
      "lord": 1990,
      "laqu": 1991,
      "</w>tant": 1992,
      "</w>bour": 1993,
      "idée": 1994,
      "behind": 1995,
      "mère": 1996,
      "</w>ical": 1997,
      "</w>chant": 1998,
      "</w>lect": 1999,
      "prin": 2000,
      "arrêt": 2001,
      "</w>used": 2002,
      "sun": 2003,
      "déb": 2004,
      "tranqu": 2005,
      "front": 2006,
      "bruit": 2007,
      "obser": 2008,
      "ev": 2009,
      "sever": 2010,
      "roi": 2011,
      "ton": 2012,
      "thus": 2013,
      "pow": 2014,
      "</w>ville": 2015,
      "</w>ote": 2016,
      "</w>uck": 2017,
      "respect": 2018,
      "swe": 2019,
      "wall": 2020,
      "themselves": 2021,
      "habit": 2022,
      "list": 2023,
      "run": 2024,
      "sus": 2025,
      "ess": 2026,
      "friends": 2027,
      "</w>temps": 2028,
      "gone": 2029,
      "</w>ss": 2030,
      "</w>ook": 2031,
      "lettre": 2032,
      "</w>uy": 2033,
      "va": 2034,
      "mois": 2035,
      "</w>essa": 2036,
      "</w>ellement": 2037,
      "letter": 2038,
      "</w>ms": 2039,
      "embar": 2040,
      "</w>oin": 2041,
      "montr": 2042,
      "descend": 2043,
      "rent": 2044,
      "!»": 2045,
      "riv": 2046,
      "sole": 2047,
      "lond": 2048,
      "empl": 2049,
      "</w>lic": 2050,
      "</w>ères": 2051,
      "thir": 2052,
      "présent": 2053,
      "terrible": 2054,
      "sold": 2055,
      "dir": 2056,
      "road": 2057,
      "passep": 2058,
      "</w>orn": 2059,
      "import": 2060,
      "reste": 2061,
      "secret": 2062,
      "fortune": 2063,
      "mit": 2064,
      "</w>aisse": 2065,
      "</w>vert": 2066,
      "nouveau": 2067,
      "rather": 2068,
      "</w>ates": 2069,
      "</w>iques": 2070,
      "fear": 2071,
      "hel": 2072,
      "admir": 2073,
      "diffic": 2074,
      "quant": 2075,
      "prison": 2076,
      "ned": 2077,
      "sle": 2078,
      "demi": 2079,
      "argent": 2080,
      "vos": 2081,
      "lad": 2082,
      "</w>ete": 2083,
      "partie": 2084,
      "cheval": 2085,
      "sett": 2086,
      "death": 2087,
      "</w>ery": 2088,
      "aucun": 2089,
      "ailleurs": 2090,
      "sens": 2091,
      "</w>isse": 2092,
      "looking": 2093,
      "fen": 2094,
      "pouss": 2095,
      "</w>ided": 2096,
      "tourn": 2097,
      "country": 2098,
      "</w>ial": 2099,
      "</w>oss": 2100,
      "present": 2101,
      "aband": 2102,
      "pie": 2103,
      "</w>bles": 2104,
      "croy": 2105,
      "</w>prise": 2106,
      "during": 2107,
      "uncle": 2108,
      "spilett": 2109,
      "hen": 2110,
      "above": 2111,
      "</w>nal": 2112,
      "hope": 2113,
      "along": 2114,
      "small": 2115,
      "vue": 2116,
      "oncle": 2117,
      "</w>indre": 2118,
      "</w>ager": 2119,
      "exce": 2120,
      "préc": 2121,
      "</w>iff": 2122,
      "</w>anche": 2123,
      "</w>orge": 2124,
      "laurent": 2125,
      "hist": 2126,
      "wife": 2127,
      "</w>encon": 2128,
      "</w>ination": 2129,
      "appel": 2130,
      "murm": 2131,
      "hors": 2132,
      "rue": 2133,
      "belle": 2134,
      "</w>iles": 2135,
      "month": 2136,
      "passion": 2137,
      "fai": 2138,
      "sorte": 2139,
      "</w>omb": 2140,
      "darcy": 2141,
      "cab": 2142,
      "etre": 2143,
      "save": 2144,
      "cause": 2145,
      "able": 2146,
      "mahe": 2147,
      "poss": 2148,
      "deven": 2149,
      "</w>ché": 2150,
      "jean": 2151,
      "prit": 2152,
      "dec": 2153,
      "</w>ute": 2154,
      "tog": 2155,
      "coming": 2156,
      "comte": 2157,
      "</w>aves": 2158,
      "coeur": 2159,
      "lit": 2160,
      "première": 2161,
      "</w>ières": 2162,
      "lorsqu": 2163,
      "joy": 2164,
      "</w>fait": 2165,
      "</w>être": 2166,
      "cru": 2167,
      "together": 2168,
      "harris": 2169,
      "sac": 2170,
      "</w>reux": 2171,
      "mine": 2172,
      "noir": 2173,
      "attention": 2174,
      "rose": 2175,
      "rencon": 2176,
      "lost": 2177,
      "given": 2178,
      "</w>ited": 2179,
      "aucune": 2180,
      "</w>rais": 2181,
      "</w>aissait": 2182,
      "maj": 2183,
      "aperç": 2184,
      "till": 2185,
      "harding": 2186,
      "idea": 2187,
      "</w>agne": 2188,
      "</w>andis": 2189,
      "proc": 2190,
      "pierre": 2191,
      "né": 2192,
      "wood": 2193,
      "stood": 2194,
      "hours": 2195,
      "lou": 2196,
      "excl": 2197,
      "</w>ades": 2198,
      "voit": 2199,
      "longtemps": 2200,
      "continued": 2201,
      "cach": 2202,
      "huit": 2203,
      "cann": 2204,
      "course": 2205,
      "particul": 2206,
      "distance": 2207,
      "returned": 2208,
      "derri": 2209,
      "</w>ric": 2210,
      "</w>omm": 2211,
      "mean": 2212,
      "maheu": 2213,
      "stand": 2214,
      "fell": 2215,
      "court": 2216,
      "</w>éc": 2217,
      "</w>iner": 2218,
      "vieux": 2219,
      "believe": 2220,
      "top": 2221,
      "remained": 2222,
      "white": 2223,
      "pain": 2224,
      "moy": 2225,
      "</w>ivement": 2226,
      "</w>fect": 2227,
      "lay": 2228,
      "</w>unes": 2229,
      "boat": 2230,
      "</w>ering": 2231,
      "ajout": 2232,
      "</w>ken": 2233,
      "</w>enç": 2234,
      "ing": 2235,
      "</w>artout": 2236,
      "situ": 2237,
      "</w>née": 2238,
      "occasion": 2239,
      "passepartout": 2240,
      "</w>ount": 2241,
      "pur": 2242,
      "sail": 2243,
      "commenç": 2244,
      "</w>ren": 2245,
      "sto": 2246,
      "</w>ash": 2247,
      "sera": 2248,
      "</w>rass": 2249,
      "</w>lé": 2250,
      "désir": 2251,
      "arms": 2252,
      "best": 2253,
      "hus": 2254,
      "nav": 2255,
      "tard": 2256,
      "</w>teur": 2257,
      "need": 2258,
      "conc": 2259,
      "danger": 2260,
      "</w>uf": 2261,
      "</w>itter": 2262,
      "bene": 2263,
      "call": 2264,
      "mess": 2265,
      "pard": 2266,
      "</w>ras": 2267,
      "</w>bed": 2268,
      "</w>erie": 2269,
      "foot": 2270,
      "soul": 2271,
      "»,": 2272,
      "times": 2273,
      "</w>ety": 2274,
      "</w>erent": 2275,
      "unt": 2276,
      "raison": 2277,
      "ast": 2278,
      "bus": 2279,
      "money": 2280,
      "person": 2281,
      "kept": 2282,
      "dame": 2283,
      "souvent": 2284,
      "followed": 2285,
      "</w>âmes": 2286,
      "rochester": 2287,
      "ram": 2288,
      "appear": 2289,
      "quitt": 2290,
      "granite": 2291,
      "aw": 2292,
      "</w>veill": 2293,
      "</w>acieux": 2294,
      "réf": 2295,
      "autour": 2296,
      "</w>chesse": 2297,
      "laquelle": 2298,
      "avons": 2299,
      "hold": 2300,
      "</w>ned": 2301,
      "short": 2302,
      "!'": 2303,
      "ra": 2304,
      "sound": 2305,
      "ceux": 2306,
      "reason": 2307,
      "furent": 2308,
      "</w>ape": 2309,
      "bur": 2310,
      "parce": 2311,
      "</w>ges": 2312,
      "prud": 2313,
      "making": 2314,
      "ayant": 2315,
      "rac": 2316,
      "</w>ual": 2317,
      "voic": 2318,
      "mous": 2319,
      "</w>abl": 2320,
      "colon": 2321,
      "propos": 2322,
      "tandis": 2323,
      "</w>riage": 2324,
      "alice": 2325,
      "fallait": 2326,
      "suddenly": 2327,
      "</w>ows": 2328,
      "play": 2329,
      "draw": 2330,
      "cold": 2331,
      "home": 2332,
      "cut": 2333,
      "dam": 2334,
      "lend": 2335,
      "</w>erait": 2336,
      "often": 2337,
      "reme": 2338,
      "ran": 2339,
      "nouv": 2340,
      "</w>œur": 2341,
      "repr": 2342,
      "plusieurs": 2343,
      "fle": 2344,
      "</w>band": 2345,
      "</w>itié": 2346,
      "oth": 2347,
      "</w>ige": 2348,
      "</w>tin": 2349,
      "</w>ular": 2350,
      "</w>rif": 2351,
      "besoin": 2352,
      "deme": 2353,
      "grands": 2354,
      "</w>roit": 2355,
      "expect": 2356,
      "affaire": 2357,
      "sight": 2358,
      "entendre": 2359,
      "engine": 2360,
      "press": 2361,
      "others": 2362,
      "ground": 2363,
      "</w>net": 2364,
      "amis": 2365,
      "break": 2366,
      "horse": 2367,
      "duchesse": 2368,
      "prob": 2369,
      "matter": 2370,
      "fair": 2371,
      "repe": 2372,
      "façon": 2373,
      "cross": 2374,
      "answered": 2375,
      "mou": 2376,
      "duch": 2377,
      "</w>mbre": 2378,
      "</w>airs": 2379,
      "</w>ôte": 2380,
      "math": 2381,
      "corps": 2382,
      "became": 2383,
      "</w>aulnes": 2384,
      "help": 2385,
      "vag": 2386,
      "</w>chait": 2387,
      "surpris": 2388,
      "impr": 2389,
      "</w>gré": 2390,
      "</w>00": 2391,
      "fact": 2392,
      "</w>mment": 2393,
      "</w>rupt": 2394,
      "</w>rier": 2395,
      "surf": 2396,
      "passage": 2397,
      "gentleman": 2398,
      "?'": 2399,
      "dév": 2400,
      "trouvait": 2401,
      "understand": 2402,
      "several": 2403,
      "plan": 2404,
      "</w>emain": 2405,
      "until": 2406,
      "</w>urer": 2407,
      "aurais": 2408,
      "mau": 2409,
      "os": 2410,
      "</w>qué": 2411,
      "candide": 2412,
      "husband": 2413,
      "autant": 2414,
      "courage": 2415,
      "excell": 2416,
      "hol": 2417,
      "myst": 2418,
      "</w>ized": 2419,
      "</w>oux": 2420,
      "fellow": 2421,
      "accord": 2422,
      "</w>âte": 2423,
      "</w>heure": 2424,
      "</w>ature": 2425,
      "</w>cha": 2426,
      "</w>tress": 2427,
      "</w>ully": 2428,
      "emma": 2429,
      "</w>ushed": 2430,
      "change": 2431,
      "joh": 2432,
      "really": 2433,
      "cather": 2434,
      "âme": 2435,
      "necess": 2436,
      "meaulnes": 2437,
      "catherine": 2438,
      "cat": 2439,
      "power": 2440,
      "ed": 2441,
      "hu": 2442,
      "nautilus": 2443,
      "win": 2444,
      "dead": 2445,
      "enter": 2446,
      "cast": 2447,
      "command": 2448,
      "cannot": 2449,
      "</w>dle": 2450,
      "pourtant": 2451,
      "prod": 2452,
      "vill": 2453,
      "true": 2454,
      "longue": 2455,
      "position": 2456,
      "</w>gh": 2457,
      "</w>itable": 2458,
      "mettre": 2459,
      "ville": 2460,
      "</w>ler": 2461,
      "</w>ection": 2462,
      "says": 2463,
      "added": 2464,
      "mour": 2465,
      "</w>ceed": 2466,
      "desp": 2467,
      "brother": 2468,
      "effort": 2469,
      "eye": 2470,
      "savoir": 2471,
      "besides": 2472,
      "ign": 2473,
      "deep": 2474,
      "</w>lia": 2475,
      "venir": 2476,
      "lendemain": 2477,
      "</w>appe": 2478,
      "</w>ails": 2479,
      "fou": 2480,
      "opened": 2481,
      "ingén": 2482,
      "john": 2483,
      "</w>pir": 2484,
      "soci": 2485,
      "surface": 2486,
      "lum": 2487,
      "</w>rer": 2488,
      "bonacieux": 2489,
      "dispos": 2490,
      "</w>ised": 2491,
      "rég": 2492,
      "fav": 2493,
      "chapter": 2494,
      "ça": 2495,
      "</w>ax": 2496,
      "</w>action": 2497,
      "</w>anged": 2498,
      "chercher": 2499,
      "</w>iere": 2500,
      "</w>ral": 2501,
      "clear": 2502,
      "génér": 2503,
      "</w>mi": 2504,
      "</w>enant": 2505,
      "</w>itôt": 2506,
      "</w>ief": 2507,
      "surprise": 2508,
      "</w>ilde": 2509,
      "bonheur": 2510,
      "mathilde": 2511,
      "eight": 2512,
      "</w>fully": 2513,
      "din": 2514,
      "gall": 2515,
      "marquis": 2516,
      "creat": 2517,
      "</w>ah": 2518,
      "retr": 2519,
      "mole": 2520,
      "alle": 2521,
      "bott": 2522,
      "agit": 2523,
      "sû": 2524,
      "reporter": 2525,
      "ciel": 2526,
      "</w>antage": 2527,
      "</w>ably": 2528,
      "div": 2529,
      "</w>ura": 2530,
      "trait": 2531,
      "sauv": 2532,
      "</w>qua": 2533,
      "</w>medi": 2534,
      "smile": 2535,
      "dispar": 2536,
      "plaisir": 2537,
      "eus": 2538,
      "</w>gé": 2539,
      "magn": 2540,
      "pâ": 2541,
      "ball": 2542,
      "fif": 2543,
      "stri": 2544,
      "</w>inte": 2545,
      "herbert": 2546,
      "certainly": 2547,
      "</w>rel": 2548,
      "harbert": 2549,
      "rencontr": 2550,
      "enfants": 2551,
      "veux": 2552,
      "batt": 2553,
      "mauv": 2554,
      "</w>lin": 2555,
      "</w>mon": 2556,
      "rock": 2557,
      "décid": 2558,
      "</w>cul": 2559,
      "livres": 2560,
      "femmes": 2561,
      "</w>gs": 2562,
      "commun": 2563,
      "beneath": 2564,
      "use": 2565,
      "family": 2566,
      "carried": 2567,
      "visit": 2568,
      "voulait": 2569,
      "observ": 2570,
      "fils": 2571,
      "lang": 2572,
      "sn": 2573,
      "bring": 2574,
      "direct": 2575,
      "voyait": 2576,
      "mots": 2577,
      "ayr": 2578,
      "dri": 2579,
      "dès": 2580,
      "ayrton": 2581,
      "</w>bes": 2582,
      "inn": 2583,
      "entered": 2584,
      "ask": 2585,
      "</w>....": 2586,
      "sometimes": 2587,
      "absol": 2588,
      "lu": 2589,
      "case": 2590,
      "mill": 2591,
      "super": 2592,
      "certaine": 2593,
      "george": 2594,
      "_n": 2595,
      "</w>ateau": 2596,
      "</w>bli": 2597,
      "camp": 2598,
      "tor": 2599,
      "whether": 2600,
      "</w>ii": 2601,
      "</w>aign": 2602,
      "</w>acle": 2603,
      "anc": 2604,
      "past": 2605,
      "women": 2606,
      "anx": 2607,
      "ship": 2608,
      "nouvelle": 2609,
      "</w>ray": 2610,
      "trouble": 2611,
      "</w>ron": 2612,
      "visage": 2613,
      "employ": 2614,
      "ens": 2615,
      "gring": 2616,
      "rich": 2617,
      "élo": 2618,
      "ble": 2619,
      "strange": 2620,
      "</w>ror": 2621,
      "start": 2622,
      "service": 2623,
      "gringoire": 2624,
      "either": 2625,
      "taking": 2626,
      "earth": 2627,
      "acqu": 2628,
      "duchessa": 2629,
      "</w>ités": 2630,
      "sleep": 2631,
      "town": 2632,
      "exe": 2633,
      "grâ": 2634,
      "</w>iant": 2635,
      "</w>onner": 2636,
      "spoke": 2637,
      "moyen": 2638,
      "</w>ict": 2639,
      "chance": 2640,
      "dress": 2641,
      "ber": 2642,
      "</w>rez": 2643,
      "</w>ales": 2644,
      "shore": 2645,
      "seeing": 2646,
      "engineer": 2647,
      "laisser": 2648,
      "</w>idence": 2649,
      "</w>aval": 2650,
      "expression": 2651,
      "reç": 2652,
      "frapp": 2653,
      "peur": 2654,
      "</w>alement": 2655,
      "</w>itions": 2656,
      "toi": 2657,
      "</w>voir": 2658,
      "</w>br": 2659,
      "parfait": 2660,
      "brill": 2661,
      "</w>body": 2662,
      "derrière": 2663,
      "réc": 2664,
      "aime": 2665,
      "rid": 2666,
      "famille": 2667,
      "</w>tout": 2668,
      "compl": 2669,
      "pensée": 2670,
      "prot": 2671,
      "suite": 2672,
      "douce": 2673,
      "horiz": 2674,
      "</w>sitôt": 2675,
      "</w>aring": 2676,
      "lequel": 2677,
      "aussitôt": 2678,
      "</w>igneur": 2679,
      "existence": 2680,
      "</w>uire": 2681,
      "envoy": 2682,
      "</w>oe": 2683,
      "</w>ument": 2684,
      "chair": 2685,
      "within": 2686,
      "opin": 2687,
      "perfect": 2688,
      "disco": 2689,
      "answer": 2690,
      "</w>éon": 2691,
      "surtout": 2692,
      "become": 2693,
      "bing": 2694,
      "sem": 2695,
      "bennet": 2696,
      "</w>erm": 2697,
      "rouge": 2698,
      "</w>phe": 2699,
      "lamp": 2700,
      "envir": 2701,
      "jim": 2702,
      "</w>cteur": 2703,
      "ingénieur": 2704,
      "manner": 2705,
      "</w>ences": 2706,
      "espér": 2707,
      "fatig": 2708,
      "pale": 2709,
      "bingley": 2710,
      "real": 2711,
      "</w>ounded": 2712,
      "trouva": 2713,
      "rênal": 2714,
      "</w>ased": 2715,
      "year": 2716,
      "plain": 2717,
      "france": 2718,
      "used": 2719,
      "begin": 2720,
      "rendre": 2721,
      "post": 2722,
      "sommes": 2723,
      "means": 2724,
      "</w>erez": 2725,
      "dau": 2726,
      "vint": 2727,
      "caus": 2728,
      "tort": 2729,
      "</w>aces": 2730,
      "renal": 2731,
      "garçon": 2732,
      "ly": 2733,
      "ready": 2734,
      "extre": 2735,
      "voici": 2736,
      "</w>ching": 2737,
      "natur": 2738,
      "general": 2739,
      "length": 2740,
      "spect": 2741,
      "</w>ended": 2742,
      "malgré": 2743,
      "donné": 2744,
      "pret": 2745,
      "soleil": 2746,
      "breat": 2747,
      "sin": 2748,
      "yourself": 2749,
      "fright": 2750,
      "</w>autilus_": 2751,
      "ajouta": 2752,
      "_nautilus_": 2753,
      "</w>ettre": 2754,
      "</w>ney": 2755,
      "close": 2756,
      "ordin": 2757,
      "tent": 2758,
      "requ": 2759,
      "partir": 2760,
      "</w>old": 2761,
      "wee": 2762,
      "immedi": 2763,
      "personn": 2764,
      "cœur": 2765,
      "</w>usion": 2766,
      "regret": 2767,
      "interest": 2768,
      "received": 2769,
      "dut": 2770,
      "children": 2771,
      "sch": 2772,
      "salle": 2773,
      "cre": 2774,
      "passé": 2775,
      "</w>issant": 2776,
      "strong": 2777,
      "</w>iously": 2778,
      "angle": 2779,
      "ray": 2780,
      "vais": 2781,
      "</w>aimed": 2782,
      "known": 2783,
      "hôt": 2784,
      "saying": 2785,
      "dernier": 2786,
      "</w>erve": 2787,
      "ense": 2788,
      "</w>na": 2789,
      "</w>ool": 2790,
      "ant": 2791,
      "</w>ieuse": 2792,
      "glass": 2793,
      "profond": 2794,
      "grâce": 2795,
      "</w>otion": 2796,
      "gentlemen": 2797,
      "</w>can": 2798,
      "therefore": 2799,
      "content": 2800,
      "direction": 2801,
      "glo": 2802,
      "joie": 2803,
      "</w>lling": 2804,
      "état": 2805,
      "frère": 2806,
      "boy": 2807,
      "spr": 2808,
      "except": 2809,
      "malheure": 2810,
      "trembl": 2811,
      "ore": 2812,
      "</w>onneur": 2813,
      "froid": 2814,
      "</w>ussent": 2815,
      "résol": 2816,
      "stopped": 2817,
      "conven": 2818,
      "live": 2819,
      "</w>ening": 2820,
      "</w>tell": 2821,
      "sum": 2822,
      "pleasure": 2823,
      "</w>ène": 2824,
      "</w>erc": 2825,
      "conte": 2826,
      "</w>ists": 2827,
      "majest": 2828,
      "</w>aught": 2829,
      "pén": 2830,
      "</w>esp": 2831,
      "</w>aste": 2832,
      "allons": 2833,
      "marin": 2834,
      "somme": 2835,
      "resol": 2836,
      "band": 2837,
      "</w>ope": 2838,
      "paroles": 2839,
      "disting": 2840,
      "obsc": 2841,
      "vert": 2842,
      "</w>lement": 2843,
      "nar": 2844,
      "oe": 2845,
      "</w>ième": 2846,
      "immense": 2847,
      "holmes": 2848,
      "</w>né": 2849,
      "train": 2850,
      "</w>inct": 2851,
      "sept": 2852,
      "</w>idement": 2853,
      "petits": 2854,
      "felton": 2855,
      "iron": 2856,
      "</w>èse": 2857,
      "</w>ême": 2858,
      "remp": 2859,
      "</w>aged": 2860,
      "scar": 2861,
      "continua": 2862,
      "jol": 2863,
      "lear": 2864,
      "instru": 2865,
      "phil": 2866,
      "winter": 2867,
      "</w>oon": 2868,
      "</w>era": 2869,
      "regardait": 2870,
      "échapp": 2871,
      "</w>ene": 2872,
      "</w>att": 2873,
      "burn": 2874,
      "cous": 2875,
      "held": 2876,
      "mouth": 2877,
      "move": 2878,
      "human": 2879,
      "sy": 2880,
      "conce": 2881,
      "quick": 2882,
      "cents": 2883,
      "happy": 2884,
      "animal": 2885,
      "</w>ives": 2886,
      "ém": 2887,
      "</w>port": 2888,
      "def": 2889,
      "spir": 2890,
      "voiture": 2891,
      "</w>été": 2892,
      "publ": 2893,
      "nécess": 2894,
      "vain": 2895,
      "</w>iments": 2896,
      "</w>teen": 2897,
      "étonn": 2898,
      "tranquille": 2899,
      "opinion": 2900,
      "</w>lu": 2901,
      "plut": 2902,
      "arriver": 2903,
      "justice": 2904,
      "condition": 2905,
      "considér": 2906,
      "fre": 2907,
      "gagn": 2908,
      "mass": 2909,
      "neither": 2910,
      "parole": 2911,
      "tears": 2912,
      "accept": 2913,
      "sister": 2914,
      "chac": 2915,
      "demander": 2916,
      "vict": 2917,
      "nombre": 2918,
      "</w>quait": 2919,
      "</w>ablement": 2920,
      "pron": 2921,
      "stay": 2922,
      "</w>aving": 2923,
      "calm": 2924,
      "placed": 2925,
      "pare": 2926,
      "blood": 2927,
      "voud": 2928,
      "</w>uve": 2929,
      "</w>ored": 2930,
      "impat": 2931,
      "</w>aît": 2932,
      "hat": 2933,
      "mouve": 2934,
      "parut": 2935,
      "connaiss": 2936,
      "</w>oulez": 2937,
      "jud": 2938,
      "worth": 2939,
      "</w>ility": 2940,
      "show": 2941,
      "rester": 2942,
      "pouvais": 2943,
      "else": 2944,
      "moun": 2945,
      "voulez": 2946,
      "obst": 2947,
      "monst": 2948,
      "company": 2949,
      "difficult": 2950,
      "élev": 2951,
      "</w>af": 2952,
      "</w>cture": 2953,
      "flo": 2954,
      "street": 2955,
      "vérité": 2956,
      "telle": 2957,
      "</w>nor": 2958,
      "itself": 2959,
      "songe": 2960,
      "repro": 2961,
      "coups": 2962,
      "</w>érieur": 2963,
      "lim": 2964,
      "wond": 2965,
      "compte": 2966,
      "thoughts": 2967,
      "</w>onç": 2968,
      "reached": 2969,
      "éclat": 2970,
      "perce": 2971,
      "puiss": 2972,
      "ferm": 2973,
      "</w>otte": 2974,
      "profonde": 2975,
      "susp": 2976,
      "prudence": 2977,
      "</w>con": 2978,
      "</w>lly": 2979,
      "abb": 2980,
      "ought": 2981,
      "dî": 2982,
      "lég": 2983,
      "intér": 2984,
      "horizon": 2985,
      "</w>ainte": 2986,
      "flam": 2987,
      "</w>go": 2988,
      "mod": 2989,
      "grave": 2990,
      "moments": 2991,
      "croire": 2992,
      "arrived": 2993,
      "droit": 2994,
      "</w>ève": 2995,
      "vieille": 2996,
      "savait": 2997,
      "étrange": 2998,
      "</w>−−": 2999,
      "bless": 3000,
      "dream": 3001,
      "essay": 3002,
      "</w>ually": 3003,
      "org": 3004,
      "pouvoir": 3005,
      "phile": 3006,
      "fenêtre": 3007,
      "exclaimed": 3008,
      "quin": 3009,
      "</w>aines": 3010,
      "contemp": 3011,
      "phileas": 3012,
      "squ": 3013,
      "</w>stances": 3014,
      "chur": 3015,
      "tried": 3016,
      "camille": 3017,
      "situation": 3018,
      "</w>ink": 3019,
      "</w>itre": 3020,
      "meet": 3021,
      "</w>quin": 3022,
      "maîtres": 3023,
      "wanted": 3024,
      "louis": 3025,
      "bad": 3026,
      "intell": 3027,
      "</w>rig": 3028,
      "</w>sib": 3029,
      "cré": 3030,
      "consider": 3031,
      "daugh": 3032,
      "intellig": 3033,
      "lips": 3034,
      "recomm": 3035,
      "garde": 3036,
      "</w>resse": 3037,
      "savez": 3038,
      "rappel": 3039,
      "</w>fs": 3040,
      "</w>vait": 3041,
      "appr": 3042,
      "account": 3043,
      "immediately": 3044,
      "tel": 3045,
      "tenait": 3046,
      "côte": 3047,
      "pir": 3048,
      "</w>té": 3049,
      "</w>iful": 3050,
      "désesp": 3051,
      "refus": 3052,
      "trees": 3053,
      "rapid": 3054,
      "wished": 3055,
      "afin": 3056,
      "entendu": 3057,
      "talk": 3058,
      "histoire": 3059,
      "affection": 3060,
      "slow": 3061,
      "big": 3062,
      "laugh": 3063,
      "hall": 3064,
      "effect": 3065,
      "polit": 3066,
      "hair": 3067,
      "honneur": 3068,
      "sel": 3069,
      "vir": 3070,
      "pus": 3071,
      "retir": 3072,
      "struck": 3073,
      "</w>esh": 3074,
      "</w>ina": 3075,
      "</w>iselle": 3076,
      "larmes": 3077,
      "piece": 3078,
      "ignor": 3079,
      "ras": 3080,
      "</w>umed": 3081,
      "double": 3082,
      "crow": 3083,
      "promen": 3084,
      "necessary": 3085,
      "hui": 3086,
      "</w>son": 3087,
      "deb": 3088,
      "pist": 3089,
      "bât": 3090,
      "dim": 3091,
      "ordre": 3092,
      "village": 3093,
      "sor": 3094,
      "série": 3095,
      "</w>onge": 3096,
      "</w>aded": 3097,
      "object": 3098,
      "mousquet": 3099,
      "</w>lish": 3100,
      "</w>iller": 3101,
      "</w>moiselle": 3102,
      "</w>ilité": 3103,
      "jeunes": 3104,
      "river": 3105,
      "simp": 3106,
      "éloign": 3107,
      "er": 3108,
      "dites": 3109,
      "mademoiselle": 3110,
      "public": 3111,
      "</w>ior": 3112,
      "</w>urait": 3113,
      "gro": 3114,
      "police": 3115,
      "domest": 3116,
      "months": 3117,
      "van": 3118,
      "éclair": 3119,
      "oppos": 3120,
      "sad": 3121,
      "det": 3122,
      "</w>quent": 3123,
      "</w>uits": 3124,
      "companions": 3125,
      "tone": 3126,
      "</w>ross": 3127,
      "compagnons": 3128,
      "aston": 3129,
      "fis": 3130,
      "brus": 3131,
      "clo": 3132,
      "suppose": 3133,
      "étend": 3134,
      "concl": 3135,
      "</w>lled": 3136,
      "aug": 3137,
      "</w>ench": 3138,
      "libert": 3139,
      "plutôt": 3140,
      "fore": 3141,
      "exact": 3142,
      "gau": 3143,
      "led": 3144,
      "shout": 3145,
      "manière": 3146,
      "</w>ugg": 3147,
      "</w>aç": 3148,
      "</w>und": 3149,
      "</w>odo": 3150,
      "plant": 3151,
      "pourrait": 3152,
      "manger": 3153,
      "</w>ission": 3154,
      "heureux": 3155,
      "pit": 3156,
      "rire": 3157,
      "</w>kes": 3158,
      "reach": 3159,
      "carry": 3160,
      "voulu": 3161,
      "bir": 3162,
      "gold": 3163,
      "business": 3164,
      "</w>èvres": 3165,
      "lead": 3166,
      "</w>alité": 3167,
      "rév": 3168,
      "miles": 3169,
      "facile": 3170,
      "cord": 3171,
      "fast": 3172,
      "lut": 3173,
      "</w>ises": 3174,
      "quas": 3175,
      "étions": 3176,
      "répét": 3177,
      "égl": 3178,
      "church": 3179,
      "</w>itation": 3180,
      "suc": 3181,
      "stud": 3182,
      "</w>issement": 3183,
      "quiet": 3184,
      "aud": 3185,
      "und": 3186,
      "salon": 3187,
      "</w>bus": 3188,
      "</w>ury": 3189,
      "lac": 3190,
      "sup": 3191,
      "noble": 3192,
      "</w>rib": 3193,
      "shut": 3194,
      "inqui": 3195,
      "recogn": 3196,
      "mere": 3197,
      "</w>lex": 3198,
      "stone": 3199,
      "neb": 3200,
      "neuf": 3201,
      "</w>cted": 3202,
      "regarda": 3203,
      "attach": 3204,
      "souvenir": 3205,
      "ensuite": 3206,
      "mist": 3207,
      "vite": 3208,
      "fresh": 3209,
      "body": 3210,
      "nab": 3211,
      "eat": 3212,
      "send": 3213,
      "</w>awn": 3214,
      "</w>gre": 3215,
      "thro": 3216,
      "</w>ities": 3217,
      "hasard": 3218,
      "londres": 3219,
      "piè": 3220,
      "épr": 3221,
      "</w>form": 3222,
      "faites": 3223,
      "journée": 3224,
      "apres": 3225,
      "remember": 3226,
      "crowd": 3227,
      "</w>imodo": 3228,
      "plu": 3229,
      "plein": 3230,
      "beautiful": 3231,
      "quasimodo": 3232,
      "quart": 3233,
      "crime": 3234,
      "</w>retched": 3235,
      "obliged": 3236,
      "adress": 3237,
      "eaux": 3238,
      "canad": 3239,
      "</w>ièrement": 3240,
      "amb": 3241,
      "hop": 3242,
      "puisque": 3243,
      "sortir": 3244,
      "later": 3245,
      "bris": 3246,
      "parti": 3247,
      "vale": 3248,
      "--\"": 3249,
      "ach": 3250,
      "pont": 3251,
      "</w>ision": 3252,
      "</w>termin": 3253,
      "pretty": 3254,
      "</w>cé": 3255,
      "</w>sh": 3256,
      "produ": 3257,
      "happiness": 3258,
      "circum": 3259,
      "quitter": 3260,
      "atte": 3261,
      "cry": 3262,
      "hot": 3263,
      "linc": 3264,
      "duc": 3265,
      "</w>oln": 3266,
      "</w>ung": 3267,
      "cloth": 3268,
      "angl": 3269,
      "allez": 3270,
      "lincoln": 3271,
      "gouver": 3272,
      "pan": 3273,
      "</w>raient": 3274,
      "</w>îmes": 3275,
      "étant": 3276,
      "disappe": 3277,
      "sout": 3278,
      "</w>ili": 3279,
      "around": 3280,
      "tenir": 3281,
      "cinqu": 3282,
      "ine": 3283,
      "tim": 3284,
      "propre": 3285,
      "natural": 3286,
      "var": 3287,
      "donne": 3288,
      "calme": 3289,
      "delight": 3290,
      "lumière": 3291,
      "die": 3292,
      "lie": 3293,
      "</w>jourd": 3294,
      "deal": 3295,
      "neigh": 3296,
      "parmi": 3297,
      "lived": 3298,
      "</w>ordin": 3299,
      "),": 3300,
      "dorm": 3301,
      "grow": 3302,
      "</w>jo": 3303,
      "</w>anches": 3304,
      "</w>cking": 3305,
      "easy": 3306,
      "messieurs": 3307,
      "rang": 3308,
      "aujourd": 3309,
      "</w>aude": 3310,
      "oubli": 3311,
      "juge": 3312,
      "</w>essor": 3313,
      "stup": 3314,
      "décl": 3315,
      "equ": 3316,
      "gaz": 3317,
      "mlle": 3318,
      "</w>oured": 3319,
      "</w>eless": 3320,
      "</w>olog": 3321,
      "haute": 3322,
      "wick": 3323,
      "</w>cation": 3324,
      "</w>este": 3325,
      "châte": 3326,
      "passa": 3327,
      "écout": 3328,
      "repeated": 3329,
      "</w>cious": 3330,
      "hy": 3331,
      "</w>ich": 3332,
      "</w>co": 3333,
      "uns": 3334,
      "gover": 3335,
      "state": 3336,
      "</w>ices": 3337,
      "</w>acter": 3338,
      "reply": 3339,
      "happened": 3340,
      "ele": 3341,
      "mag": 3342,
      "blanc": 3343,
      "venu": 3344,
      "extra": 3345,
      "</w>tait": 3346,
      "law": 3347,
      "tres": 3348,
      "</w>aped": 3349,
      "cria": 3350,
      "wild": 3351,
      "carriage": 3352,
      "précip": 3353,
      "lyd": 3354,
      "fol": 3355,
      "west": 3356,
      "cho": 3357,
      "</w>side": 3358,
      "ther": 3359,
      "avou": 3360,
      "living": 3361,
      "feeling": 3362,
      "sépar": 3363,
      "mir": 3364,
      "</w>iver": 3365,
      "sombre": 3366,
      "perdu": 3367,
      "</w>itted": 3368,
      "</w>itting": 3369,
      "ban": 3370,
      "smo": 3371,
      "</w>raid": 3372,
      "</w>eté": 3373,
      "forme": 3374,
      "afraid": 3375,
      "empê": 3376,
      "restait": 3377,
      "trouvé": 3378,
      "entrer": 3379,
      "relig": 3380,
      "observed": 3381,
      "franç": 3382,
      "liv": 3383,
      "distr": 3384,
      "faite": 3385,
      "colons": 3386,
      "ta": 3387,
      "</w>lant": 3388,
      "complet": 3389,
      "juste": 3390,
      "attendre": 3391,
      "bread": 3392,
      "</w>aie": 3393,
      "doit": 3394,
      "fool": 3395,
      "expli": 3396,
      "endroit": 3397,
      "champ": 3398,
      "aperce": 3399,
      "musk": 3400,
      "église": 3401,
      "enn": 3402,
      "</w>quement": 3403,
      "walked": 3404,
      "combien": 3405,
      "hôtel": 3406,
      "chacun": 3407,
      "thér": 3408,
      "</w>ison": 3409,
      "london": 3410,
      "</w>rée": 3411,
      "parle": 3412,
      "covered": 3413,
      "incre": 3414,
      "priv": 3415,
      "</w>iend": 3416,
      "former": 3417,
      "sailor": 3418,
      "hé": 3419,
      "extrême": 3420,
      "travail": 3421,
      "princip": 3422,
      "général": 3423,
      "rod": 3424,
      "sentiment": 3425,
      "dîner": 3426,
      "avions": 3427,
      "stu": 3428,
      "slight": 3429,
      "thérèse": 3430,
      "</w>ète": 3431,
      "charge": 3432,
      "prépar": 3433,
      "sourire": 3434,
      "</w>rant": 3435,
      "</w>èle": 3436,
      "forward": 3437,
      "box": 3438,
      "heavy": 3439,
      "den": 3440,
      "</w>etting": 3441,
      "grim": 3442,
      "vivre": 3443,
      "ensemble": 3444,
      "extraordin": 3445,
      "bank": 3446,
      "pun": 3447,
      "leaving": 3448,
      "shar": 3449,
      "planch": 3450,
      "belong": 3451,
      "sait": 3452,
      "</w>rid": 3453,
      "</w>iced": 3454,
      "cost": 3455,
      "quelqu": 3456,
      "bouche": 3457,
      "18": 3458,
      "tap": 3459,
      "</w>ude": 3460,
      "</w>read": 3461,
      "</w>esses": 3462,
      "brave": 3463,
      "rempl": 3464,
      "kiss": 3465,
      "nap": 3466,
      "</w>nt": 3467,
      "</w>illed": 3468,
      "rob": 3469,
      "</w>angers": 3470,
      "english": 3471,
      "middle": 3472,
      "waiting": 3473,
      "therese": 3474,
      "thick": 3475,
      "compagnie": 3476,
      "aig": 3477,
      "lèvres": 3478,
      "pac": 3479,
      "thé": 3480,
      "entire": 3481,
      "présence": 3482,
      "drew": 3483,
      "ombre": 3484,
      "répondre": 3485,
      "turning": 3486,
      "trente": 3487,
      "bov": 3488,
      "commenc": 3489,
      "horrible": 3490,
      "faute": 3491,
      "pardon": 3492,
      "planchet": 3493,
      "</w>ôle": 3494,
      "presence": 3495,
      "escal": 3496,
      "daughter": 3497,
      "</w>ctor": 3498,
      "dél": 3499,
      "</w>chev": 3500,
      "resta": 3501,
      "servant": 3502,
      "standing": 3503,
      "environ": 3504,
      "</w>ores": 3505,
      "avent": 3506,
      "pren": 3507,
      "té": 3508,
      "</w>ends": 3509,
      "affect": 3510,
      "vague": 3511,
      "bovary": 3512,
      "vig": 3513,
      "équ": 3514,
      "</w>arm": 3515,
      "</w>uth": 3516,
      "</w>tez": 3517,
      "broken": 3518,
      "thirty": 3519,
      "</w>alous": 3520,
      "board": 3521,
      "aid": 3522,
      "fish": 3523,
      "rass": 3524,
      "</w>ios": 3525,
      "seven": 3526,
      "</w>amment": 3527,
      "allow": 3528,
      "volont": 3529,
      "fil": 3530,
      "formed": 3531,
      "leva": 3532,
      ",--": 3533,
      "?»": 3534,
      "milles": 3535,
      "chant": 3536,
      "strength": 3537,
      "speaking": 3538,
      "vraiment": 3539,
      "transport": 3540,
      "nord": 3541,
      "rom": 3542,
      "</w>eau": 3543,
      "noise": 3544,
      "loved": 3545,
      "</w>entement": 3546,
      "raised": 3547,
      "tré": 3548,
      "</w>anced": 3549,
      "remain": 3550,
      "regarder": 3551,
      "</w>ative": 3552,
      "assur": 3553,
      "chapitre": 3554,
      "following": 3555,
      "mariage": 3556,
      "véritable": 3557,
      "laid": 3558,
      "</w>rie": 3559,
      "asc": 3560,
      "arrivé": 3561,
      "excellent": 3562,
      "cit": 3563,
      "</w>opp": 3564,
      "</w>êtes": 3565,
      "</w>isted": 3566,
      "demain": 3567,
      "view": 3568,
      "voyant": 3569,
      "silent": 3570,
      "across": 3571,
      "camar": 3572,
      "dernière": 3573,
      "singul": 3574,
      "success": 3575,
      "sinc": 3576,
      "</w>ingly": 3577,
      "</w>ettes": 3578,
      "grav": 3579,
      "</w>ests": 3580,
      "</w>ustom": 3581,
      "passait": 3582,
      "courant": 3583,
      "subject": 3584,
      "mouvement": 3585,
      "vess": 3586,
      "</w>zz": 3587,
      "tomber": 3588,
      "immo": 3589,
      "garden": 3590,
      "minute": 3591,
      "walk": 3592,
      "roug": 3593,
      "midst": 3594,
      "fight": 3595,
      "foule": 3596,
      "</w>ost": 3597,
      "</w>hom": 3598,
      "</w>ging": 3599,
      "cell": 3600,
      "</w>ounds": 3601,
      "parlait": 3602,
      "thinking": 3603,
      "furn": 3604,
      "</w>mor": 3605,
      "attemp": 3606,
      "</w>ication": 3607,
      "closed": 3608,
      "filles": 3609,
      "</w>asp": 3610,
      "</w>seigneur": 3611,
      "colle": 3612,
      "chevaux": 3613,
      "particular": 3614,
      "mauvais": 3615,
      "week": 3616,
      "asse": 3617,
      "attr": 3618,
      "arbres": 3619,
      "monseigneur": 3620,
      "grandes": 3621,
      "</w>ize": 3622,
      "bonn": 3623,
      "dav": 3624,
      "certainement": 3625,
      "quinze": 3626,
      "cuis": 3627,
      "dos": 3628,
      "</w>onse": 3629,
      "</w>aken": 3630,
      "</w>where": 3631,
      "cad": 3632,
      "ring": 3633,
      "enj": 3634,
      "scr": 3635,
      "</w>hors": 3636,
      "</w>ît": 3637,
      "</w>tern": 3638,
      "story": 3639,
      "spite": 3640,
      "faisant": 3641,
      "donnait": 3642,
      "départ": 3643,
      "filled": 3644,
      "caught": 3645,
      "</w>lait": 3646,
      "inj": 3647,
      "pours": 3648,
      "french": 3649,
      "doing": 3650,
      "ouver": 3651,
      "coast": 3652,
      "voyez": 3653,
      "number": 3654,
      "</w>oncer": 3655,
      "wickham": 3656,
      "med": 3657,
      "porter": 3658,
      "truth": 3659,
      "</w>uil": 3660,
      "</w>bs": 3661,
      "</w>iling": 3662,
      "shop": 3663,
      "prevent": 3664,
      "chem": 3665,
      "corral": 3666,
      "ress": 3667,
      "san": 3668,
      "</w>pent": 3669,
      "siè": 3670,
      "</w>sive": 3671,
      "dinner": 3672,
      "</w>oint": 3673,
      "</w>pl": 3674,
      "</w>outer": 3675,
      "ceci": 3676,
      "forgot": 3677,
      "surprised": 3678,
      "maîtresse": 3679,
      "gauche": 3680,
      "nour": 3681,
      "</w>stance": 3682,
      "doig": 3683,
      "mercy": 3684,
      "single": 3685,
      "warm": 3686,
      "creature": 3687,
      "age": 3688,
      "saut": 3689,
      "diable": 3690,
      "basse": 3691,
      "questions": 3692,
      "jardin": 3693,
      "chasse": 3694,
      "queen": 3695,
      "exh": 3696,
      "persu": 3697,
      "watch": 3698,
      "hast": 3699,
      "prêt": 3700,
      "</w>ache": 3701,
      "demande": 3702,
      "professor": 3703,
      "midi": 3704,
      "evident": 3705,
      "</w>uir": 3706,
      "découv": 3707,
      "steps": 3708,
      "abandonn": 3709,
      "drawing": 3710,
      "</w>ceeded": 3711,
      "bottom": 3712,
      "bag": 3713,
      "eur": 3714,
      "trouve": 3715,
      "gest": 3716,
      "won": 3717,
      "triste": 3718,
      "ext": 3719,
      "</w>...": 3720,
      "mistress": 3721,
      "arriva": 3722,
      "step": 3723,
      "navire": 3724,
      "obscur": 3725,
      "sen": 3726,
      "</w>fr": 3727,
      "</w>erai": 3728,
      "</w>issaient": 3729,
      "fing": 3730,
      "</w>ef": 3731,
      "colère": 3732,
      "nearly": 3733,
      "escape": 3734,
      "</w>field": 3735,
      "reine": 3736,
      "desire": 3737,
      "sentait": 3738,
      "speed": 3739,
      "arrivée": 3740,
      "curios": 3741,
      "giving": 3742,
      "running": 3743,
      "</w>ones": 3744,
      "mach": 3745,
      "lettres": 3746,
      "perdre": 3747,
      "pâle": 3748,
      "cours": 3749,
      "lis": 3750,
      "rav": 3751,
      "</w>étr": 3752,
      "rejo": 3753,
      "appart": 3754,
      "character": 3755,
      "gun": 3756,
      "</w>reur": 3757,
      "</w>aissez": 3758,
      "height": 3759,
      "écrit": 3760,
      "attent": 3761,
      "inconn": 3762,
      "action": 3763,
      "book": 3764,
      "bey": 3765,
      "bell": 3766,
      "sujet": 3767,
      "termin": 3768,
      "sûr": 3769,
      "pic": 3770,
      "</w>cely": 3771,
      "</w>elopp": 3772,
      "parc": 3773,
      "suivre": 3774,
      "vin": 3775,
      "</w>oes": 3776,
      "</w>ires": 3777,
      "caract": 3778,
      "letters": 3779,
      "beyond": 3780,
      "free": 3781,
      "</w>ouff": 3782,
      "</w>veux": 3783,
      "chien": 3784,
      "</w>amp": 3785,
      "dég": 3786,
      "malheur": 3787,
      "voulut": 3788,
      "horses": 3789,
      "slowly": 3790,
      "pa": 3791,
      "</w>dain": 3792,
      "diam": 3793,
      "</w>léch": 3794,
      "</w>fer": 3795,
      "semble": 3796,
      "brû": 3797,
      "faith": 3798,
      "suivant": 3799,
      "années": 3800,
      "fixed": 3801,
      "honour": 3802,
      "oeil": 3803,
      "debout": 3804,
      "énor": 3805,
      "traî": 3806,
      "devil": 3807,
      "emport": 3808,
      "différ": 3809,
      "line": 3810,
      "mai": 3811,
      "</w>ously": 3812,
      "</w>ctions": 3813,
      "lod": 3814,
      "blow": 3815,
      "consent": 3816,
      "suppos": 3817,
      "none": 3818,
      "vivement": 3819,
      "</w>gy": 3820,
      "</w>roy": 3821,
      "influ": 3822,
      "news": 3823,
      "immob": 3824,
      "bor": 3825,
      "</w>iance": 3826,
      "</w>jets": 3827,
      "seems": 3828,
      "incl": 3829,
      "quelquefois": 3830,
      "despair": 3831,
      "school": 3832,
      "hardly": 3833,
      "violent": 3834,
      "ordinaire": 3835,
      "fan": 3836,
      "kill": 3837,
      "north": 3838,
      "</w>hab": 3839,
      "amen": 3840,
      "réponse": 3841,
      "veille": 3842,
      "honor": 3843,
      "imagination": 3844,
      "embarrass": 3845,
      "parfaitement": 3846,
      "déclar": 3847,
      "jac": 3848,
      "</w>âche": 3849,
      "alla": 3850,
      "inform": 3851,
      "condu": 3852,
      "</w>esseur": 3853,
      "beginning": 3854,
      "cinquante": 3855,
      "château": 3856,
      ",−−": 3857,
      "grew": 3858,
      "</w>çons": 3859,
      "déch": 3860,
      "absence": 3861,
      "talking": 3862,
      "arrêta": 3863,
      "coul": 3864,
      "dehors": 3865,
      "</w>amm": 3866,
      "</w>amed": 3867,
      "</w>oland": 3868,
      "cris": 3869,
      "blue": 3870,
      "revenir": 3871,
      "listen": 3872,
      "journey": 3873,
      "different": 3874,
      "donna": 3875,
      "escalier": 3876,
      "</w>ds": 3877,
      "tow": 3878,
      "avanç": 3879,
      "plat": 3880,
      "depart": 3881,
      "infin": 3882,
      "windows": 3883,
      "mountain": 3884,
      "ait": 3885,
      "</w>atic": 3886,
      "</w>mbled": 3887,
      "roy": 3888,
      "oubl": 3889,
      "drag": 3890,
      "</w>gram": 3891,
      "ladies": 3892,
      "</w>bb": 3893,
      "espe": 3894,
      "cheveux": 3895,
      "flow": 3896,
      "reflect": 3897,
      "savais": 3898,
      "</w>ouvez": 3899,
      "réfléch": 3900,
      "scarcely": 3901,
      "pot": 3902,
      "</w>ater": 3903,
      "</w>terre": 3904,
      "dest": 3905,
      "dog": 3906,
      "clim": 3907,
      "corner": 3908,
      "</w>minence": 3909,
      "géd": 3910,
      "hang": 3911,
      "nég": 3912,
      "signe": 3913,
      "vient": 3914,
      "</w>ouill": 3915,
      "quo": 3916,
      "depth": 3917,
      "</w>érieure": 3918,
      "favor": 3919,
      "gédéon": 3920,
      "</w>antly": 3921,
      "showed": 3922,
      "paraissait": 3923,
      "stop": 3924,
      "</w>istance": 3925,
      "devoir": 3926,
      "afterwards": 3927,
      "roland": 3928,
      "</w>rine": 3929,
      "neck": 3930,
      "</w>ifique": 3931,
      "future": 3932,
      "common": 3933,
      "fash": 3934,
      "decl": 3935,
      "</w>quette": 3936,
      "délic": 3937,
      "flat": 3938,
      "bask": 3939,
      "rapport": 3940,
      "jeta": 3941,
      "heaven": 3942,
      "éprouv": 3943,
      "fier": 3944,
      "</w>ids": 3945,
      "</w>head": 3946,
      "toutefois": 3947,
      "indi": 3948,
      "circon": 3949,
      "sacrif": 3950,
      "burst": 3951,
      "hill": 3952,
      "</w>eries": 3953,
      "</w>eter": 3954,
      "marche": 3955,
      "repos": 3956,
      "regards": 3957,
      "regardant": 3958,
      "indiff": 3959,
      "impression": 3960,
      "davantage": 3961,
      "mention": 3962,
      "passing": 3963,
      "blanche": 3964,
      "occur": 3965,
      "abbé": 3966,
      "quoique": 3967,
      "sli": 3968,
      "lean": 3969,
      "etc": 3970,
      "</w>osop": 3971,
      "</w>ency": 3972,
      "droite": 3973,
      "gai": 3974,
      "od": 3975,
      "</w>tead": 3976,
      "shad": 3977,
      "attendait": 3978,
      "quarante": 3979,
      "philosop": 3980,
      "</w>aled": 3981,
      "</w>oureux": 3982,
      "</w>nement": 3983,
      "effray": 3984,
      "pleine": 3985,
      "quarter": 3986,
      "extrem": 3987,
      "anglais": 3988,
      "mut": 3989,
      "sand": 3990,
      "</w>oque": 3991,
      "threw": 3992,
      "</w>cep": 3993,
      "seized": 3994,
      "alth": 3995,
      "pock": 3996,
      "agré": 3997,
      "seconde": 3998,
      "heads": 3999,
      "henry": 4000,
      "taille": 4001,
      "relev": 4002,
      "try": 4003,
      "</w>acre": 4004,
      "pros": 4005,
      "</w>cially": 4006,
      "aperçut": 4007,
      "appearance": 4008,
      "pil": 4009,
      "</w>rons": 4010,
      "</w>nent": 4011,
      "</w>ued": 4012,
      "</w>ailles": 4013,
      "visite": 4014,
      "bright": 4015,
      "although": 4016,
      "couv": 4017,
      "font": 4018,
      "hés": 4019,
      "rare": 4020,
      "tete": 4021,
      "</w>pit": 4022,
      "england": 4023,
      "decided": 4024,
      "angleterre": 4025,
      "fum": 4026,
      "meant": 4027,
      "</w>ortun": 4028,
      "spl": 4029,
      "</w>ishment": 4030,
      "assis": 4031,
      "palais": 4032,
      "green": 4033,
      "understood": 4034,
      "easily": 4035,
      "mel": 4036,
      "</w>ira": 4037,
      "chim": 4038,
      "support": 4039,
      "consequ": 4040,
      "contraire": 4041,
      "collins": 4042,
      "maheude": 4043,
      "south": 4044,
      "group": 4045,
      "alt": 4046,
      "appuy": 4047,
      "espè": 4048,
      "comprendre": 4049,
      "satisfaction": 4050,
      "pense": 4051,
      "tur": 4052,
      "</w>han": 4053,
      "</w>ript": 4054,
      "ard": 4055,
      "exper": 4056,
      "</w>ively": 4057,
      "arrive": 4058,
      "morrow": 4059,
      "forget": 4060,
      "vast": 4061,
      "meille": 4062,
      "class": 4063,
      "volcan": 4064,
      "accompagn": 4065,
      "walls": 4066,
      "mourir": 4067,
      "</w>kn": 4068,
      "</w>elled": 4069,
      "veut": 4070,
      "entra": 4071,
      "broke": 4072,
      "perfectly": 4073,
      "</w>oly": 4074,
      "</w>ump": 4075,
      "</w>sc": 4076,
      "separ": 4077,
      "plateau": 4078,
      "guard": 4079,
      "express": 4080,
      "hume": 4081,
      "pouvez": 4082,
      "</w>ias": 4083,
      "</w>eun": 4084,
      "pray": 4085,
      "coin": 4086,
      "floor": 4087,
      "jup": 4088,
      "</w>ov": 4089,
      "</w>inet": 4090,
      "aspect": 4091,
      "twel": 4092,
      "instinct": 4093,
      "bucking": 4094,
      "lydia": 4095,
      "buckingham": 4096,
      "pere": 4097,
      "</w>cer": 4098,
      "monter": 4099,
      "below": 4100,
      "faisaient": 4101,
      "bourge": 4102,
      "sweet": 4103,
      "fashion": 4104,
      "jug": 4105,
      "</w>romp": 4106,
      "inut": 4107,
      "ital": 4108,
      "compli": 4109,
      "</w>udes": 4110,
      "aura": 4111,
      "</w>onnement": 4112,
      "</w>erville": 4113,
      "colonel": 4114,
      "</w>eness": 4115,
      "</w>alth": 4116,
      "bear": 4117,
      "soft": 4118,
      "affaires": 4119,
      "</w>beau": 4120,
      "penser": 4121,
      "baron": 4122,
      "steam": 4123,
      "dépl": 4124,
      "getting": 4125,
      "</w>rim": 4126,
      "apport": 4127,
      "portait": 4128,
      "misér": 4129,
      "exemp": 4130,
      "spectacle": 4131,
      "wonder": 4132,
      "</w>etr": 4133,
      "chat": 4134,
      "resse": 4135,
      "paper": 4136,
      "europe": 4137,
      "</w>istre": 4138,
      "avis": 4139,
      "moindre": 4140,
      "</w>ulg": 4141,
      "intro": 4142,
      "discuss": 4143,
      "irrit": 4144,
      "darkness": 4145,
      "raquin": 4146,
      "sharp": 4147,
      "especially": 4148,
      "</w>iné": 4149,
      "</w>ita": 4150,
      "</w>ateur": 4151,
      "</w>asser": 4152,
      "pouvaient": 4153,
      "épaul": 4154,
      "interrupt": 4155,
      "genoux": 4156,
      "déjeun": 4157,
      "signal": 4158,
      "charming": 4159,
      "rocks": 4160,
      "breath": 4161,
      "killed": 4162,
      "</w>quels": 4163,
      "comfort": 4164,
      "knows": 4165,
      "interv": 4166,
      "motion": 4167,
      "dû": 4168,
      "</w>nait": 4169,
      "</w>ètres": 4170,
      "unc": 4171,
      "sear": 4172,
      "</w>rice": 4173,
      "jehan": 4174,
      "intention": 4175,
      "shoulders": 4176,
      "autrefois": 4177,
      "calcul": 4178,
      "pensa": 4179,
      "violence": 4180,
      "influence": 4181,
      "por": 4182,
      "chr": 4183,
      "destin": 4184,
      "trist": 4185,
      "grat": 4186,
      "robe": 4187,
      "seem": 4188,
      "glad": 4189,
      "</w>édi": 4190,
      "ouvrit": 4191,
      "further": 4192,
      "concern": 4193,
      "</w>ub": 4194,
      "moitié": 4195,
      "serious": 4196,
      "entendit": 4197,
      "treville": 4198,
      "découver": 4199,
      "tréville": 4200,
      "pav": 4201,
      "</w>osph": 4202,
      "préf": 4203,
      "entraî": 4204,
      "fifty": 4205,
      "field": 4206,
      "hans": 4207,
      "</w>mar": 4208,
      "</w>entes": 4209,
      "poit": 4210,
      "phys": 4211,
      "espoir": 4212,
      "sword": 4213,
      "cousin": 4214,
      "inquiét": 4215,
      ".,": 4216,
      "fant": 4217,
      "tab": 4218,
      "</w>ips": 4219,
      "</w>oure": 4220,
      "cloud": 4221,
      "mêmes": 4222,
      "didn": 4223,
      "heureuse": 4224,
      "priest": 4225,
      "twelve": 4226,
      "rain": 4227,
      "sense": 4228,
      "</w>icient": 4229,
      "married": 4230,
      "homais": 4231,
      "resumed": 4232,
      "difficile": 4233,
      "quickly": 4234,
      "</w>aight": 4235,
      "moved": 4236,
      "tromp": 4237,
      "</w>agement": 4238,
      "glance": 4239,
      "assass": 4240,
      "instead": 4241,
      "morce": 4242,
      "orders": 4243,
      "write": 4244,
      "reconnaiss": 4245,
      "poursui": 4246,
      "méd": 4247,
      "toward": 4248,
      "enne": 4249,
      "soin": 4250,
      "</w>aced": 4251,
      "allowed": 4252,
      "spent": 4253,
      "straight": 4254,
      "please": 4255,
      "nouvelles": 4256,
      "disappeared": 4257,
      "français": 4258,
      "épaules": 4259,
      "hid": 4260,
      "rage": 4261,
      "</w>erable": 4262,
      "auprès": 4263,
      "</w>deur": 4264,
      "outside": 4265,
      "sentiments": 4266,
      "third": 4267,
      "</w>âtre": 4268,
      "</w>bon": 4269,
      "obten": 4270,
      "waters": 4271,
      "distur": 4272,
      "rapidement": 4273,
      "vessel": 4274,
      "</w>aches": 4275,
      "terror": 4276,
      "revint": 4277,
      "pill": 4278,
      "</w>êter": 4279,
      "</w>ining": 4280,
      "comes": 4281,
      "livre": 4282,
      "</w>oires": 4283,
      "comple": 4284,
      "resolved": 4285,
      "inex": 4286,
      "bare": 4287,
      "</w>rés": 4288,
      "</w>iennes": 4289,
      "abbe": 4290,
      "claude": 4291,
      "prisonn": 4292,
      "expected": 4293,
      "eusse": 4294,
      "luc": 4295,
      "intelligence": 4296,
      "fi": 4297,
      "</w>ites": 4298,
      "chaise": 4299,
      "canot": 4300,
      "affir": 4301,
      "entendait": 4302,
      "discover": 4303,
      "pend": 4304,
      "path": 4305,
      "ros": 4306,
      "throw": 4307,
      "enth": 4308,
      "</w>pping": 4309,
      "monts": 4310,
      "weak": 4311,
      "marriage": 4312,
      "serais": 4313,
      "consc": 4314,
      "chamber": 4315,
      "perceived": 4316,
      "hél": 4317,
      "oise": 4318,
      "</w>éci": 4319,
      "seated": 4320,
      "</w>llement": 4321,
      "cler": 4322,
      "laissé": 4323,
      "murder": 4324,
      "stream": 4325,
      "importance": 4326,
      "000": 4327,
      "purs": 4328,
      "</w>hor": 4329,
      "</w>ffe": 4330,
      "</w>venture": 4331,
      "embr": 4332,
      "honest": 4333,
      "muskete": 4334,
      "bound": 4335,
      "city": 4336,
      "</w>ann": 4337,
      "</w>ormed": 4338,
      "duke": 4339,
      "marry": 4340,
      "</w>ishop": 4341,
      "premiers": 4342,
      "dessous": 4343,
      "convict": 4344,
      "travaill": 4345,
      "racont": 4346,
      "hes": 4347,
      "</w>isions": 4348,
      "enem": 4349,
      "pop": 4350,
      "offer": 4351,
      "dressed": 4352,
      "professeur": 4353,
      "difficul": 4354,
      "difficulty": 4355,
      "mét": 4356,
      "tis": 4357,
      "exéc": 4358,
      "libre": 4359,
      "accus": 4360,
      "usual": 4361,
      "troubl": 4362,
      "interromp": 4363,
      "entour": 4364,
      "idées": 4365,
      "utter": 4366,
      "circumstances": 4367,
      "enjoy": 4368,
      "</w>ls": 4369,
      "deli": 4370,
      "</w>uré": 4371,
      "</w>illy": 4372,
      "tirer": 4373,
      "nine": 4374,
      "</w>ush": 4375,
      "clothes": 4376,
      "civ": 4377,
      "pure": 4378,
      "</w>aze": 4379,
      "leag": 4380,
      "spread": 4381,
      "importe": 4382,
      "capable": 4383,
      "narrow": 4384,
      "bit": 4385,
      "</w>fast": 4386,
      "</w>aph": 4387,
      "</w>itement": 4388,
      "</w>cient": 4389,
      "touch": 4390,
      "prep": 4391,
      "consol": 4392,
      "demandai": 4393,
      "acquaint": 4394,
      "bourgeois": 4395,
      "</w>bor": 4396,
      "whis": 4397,
      "whatever": 4398,
      "laissa": 4399,
      "important": 4400,
      "montsou": 4401,
      "bons": 4402,
      "waves": 4403,
      "repris": 4404,
      "</w>ested": 4405,
      "</w>dec": 4406,
      "prec": 4407,
      "strugg": 4408,
      "lentement": 4409,
      "sire": 4410,
      "</w>onter": 4411,
      "</w>isc": 4412,
      "chaval": 4413,
      "compris": 4414,
      "répli": 4415,
      "portrait": 4416,
      "répondis": 4417,
      "listened": 4418,
      "abandon": 4419,
      "caval": 4420,
      "fid": 4421,
      "gout": 4422,
      "honn": 4423,
      "oce": 4424,
      "grace": 4425,
      "époque": 4426,
      "déja": 4427,
      "apart": 4428,
      "believed": 4429,
      "débar": 4430,
      "témo": 4431,
      "roul": 4432,
      "station": 4433,
      "terr": 4434,
      "prév": 4435,
      "hauteur": 4436,
      "rising": 4437,
      "pieces": 4438,
      "late": 4439,
      "</w>eurs": 4440,
      "</w>ilt": 4441,
      "</w>ending": 4442,
      "réveill": 4443,
      "ago": 4444,
      "instants": 4445,
      "finally": 4446,
      "habitu": 4447,
      "sky": 4448,
      "exec": 4449,
      "entirely": 4450,
      "</w>esc": 4451,
      "</w>irait": 4452,
      "atm": 4453,
      "noire": 4454,
      "</w>tained": 4455,
      "brig": 4456,
      "tender": 4457,
      "campagne": 4458,
      "malheureux": 4459,
      "tellement": 4460,
      "enorm": 4461,
      "établ": 4462,
      "</w>ueil": 4463,
      "agree": 4464,
      "longues": 4465,
      "watched": 4466,
      "finished": 4467,
      "efforts": 4468,
      "chang": 4469,
      "petites": 4470,
      "dread": 4471,
      "discovered": 4472,
      "poitrine": 4473,
      "jack": 4474,
      "éte": 4475,
      "</w>dre": 4476,
      "</w>hood": 4477,
      "surr": 4478,
      "allum": 4479,
      "martin": 4480,
      "</w>aking": 4481,
      "innoc": 4482,
      "learned": 4483,
      "âge": 4484,
      "dece": 4485,
      "beat": 4486,
      "prol": 4487,
      "amus": 4488,
      "arrière": 4489,
      "épouv": 4490,
      "mél": 4491,
      "approach": 4492,
      "imagine": 4493,
      "pût": 4494,
      "</w>agé": 4495,
      "</w>ounced": 4496,
      "intérieur": 4497,
      "</w>ancy": 4498,
      "arrange": 4499,
      "centre": 4500,
      "reconnaître": 4501,
      "fal": 4502,
      "faud": 4503,
      "hér": 4504,
      "</w>acon": 4505,
      "accident": 4506,
      "fini": 4507,
      "entrée": 4508,
      "arrach": 4509,
      "habitude": 4510,
      "grosse": 4511,
      "</w>gne": 4512,
      "prenait": 4513,
      "</w>arde": 4514,
      "latter": 4515,
      "papier": 4516,
      "magnific": 4517,
      "ocean": 4518,
      "orig": 4519,
      "</w>di": 4520,
      "franch": 4521,
      "clé": 4522,
      "secou": 4523,
      "malade": 4524,
      "</w>ogne": 4525,
      "brusquement": 4526,
      "océ": 4527,
      "vendre": 4528,
      "soy": 4529,
      "clos": 4530,
      "party": 4531,
      "science": 4532,
      "</w>ries": 4533,
      "amer": 4534,
      "intim": 4535,
      "</w>itten": 4536,
      "offered": 4537,
      "jusque": 4538,
      "hyp": 4539,
      "hier": 4540,
      "</w>vet": 4541,
      "</w>ande": 4542,
      "</w>pper": 4543,
      "log": 4544,
      "encour": 4545,
      "wrong": 4546,
      "waited": 4547,
      "pénétr": 4548,
      "caractère": 4549,
      "bill": 4550,
      "</w>night": 4551,
      "plate": 4552,
      "</w>ifs": 4553,
      "reçu": 4554,
      "déjeuner": 4555,
      "treat": 4556,
      "ur": 4557,
      "</w>mit": 4558,
      "</w>atures": 4559,
      "peace": 4560,
      "suffis": 4561,
      "faim": 4562,
      "œil": 4563,
      "unh": 4564,
      "</w>uish": 4565,
      "foi": 4566,
      "profound": 4567,
      "handsome": 4568,
      "accompl": 4569,
      "rememb": 4570,
      "fatigue": 4571,
      "duty": 4572,
      "clélia": 4573,
      "!…": 4574,
      "bais": 4575,
      "tall": 4576,
      "</w>oupe": 4577,
      "consé": 4578,
      "fallen": 4579,
      "companion": 4580,
      "henne": 4581,
      "diss": 4582,
      "sortit": 4583,
      "silenc": 4584,
      "sufficient": 4585,
      "opening": 4586,
      "beauty": 4587,
      "anxi": 4588,
      "eussent": 4589,
      "gide": 4590,
      "stro": 4591,
      "</w>usted": 4592,
      "forty": 4593,
      "ferme": 4594,
      "knees": 4595,
      "clelia": 4596,
      "commençait": 4597,
      "oreille": 4598,
      "gideon": 4599,
      "ligne": 4600,
      "</w>ares": 4601,
      "unique": 4602,
      "craign": 4603,
      "impatience": 4604,
      "noticed": 4605,
      "</w>ols": 4606,
      "réun": 4607,
      "ouvert": 4608,
      "remont": 4609,
      "commence": 4610,
      "stranger": 4611,
      "dents": 4612,
      "</w>wise": 4613,
      "</w>ony": 4614,
      "lake": 4615,
      "possib": 4616,
      "jambes": 4617,
      "épau": 4618,
      "</w>êtres": 4619,
      "talked": 4620,
      "lower": 4621,
      "nécessaire": 4622,
      "fart": 4623,
      "roo": 4624,
      "</w>mis": 4625,
      "</w>isément": 4626,
      "</w>acy": 4627,
      "mange": 4628,
      "douleur": 4629,
      "évé": 4630,
      "ouvrir": 4631,
      "excuse": 4632,
      "jolie": 4633,
      "farther": 4634,
      "bateau": 4635,
      "</w>ouses": 4636,
      "beaux": 4637,
      "prêtre": 4638,
      "marches": 4639,
      "coqu": 4640,
      "advantage": 4641,
      "opportun": 4642,
      "favour": 4643,
      "inutile": 4644,
      "complete": 4645,
      "enormous": 4646,
      "</w>pse": 4647,
      "</w>unate": 4648,
      "</w>under": 4649,
      "</w>éré": 4650,
      "cart": 4651,
      "prétend": 4652,
      "walking": 4653,
      "accompan": 4654,
      "admiration": 4655,
      "murmura": 4656,
      "</w>homme": 4657,
      "pocket": 4658,
      "océan": 4659,
      "hennebeau": 4660,
      "cli": 4661,
      "</w>usse": 4662,
      "beast": 4663,
      "</w>illon": 4664,
      "guide": 4665,
      "levaque": 4666,
      "pleased": 4667,
      "retrouv": 4668,
      "symp": 4669,
      "pièce": 4670,
      "mér": 4671,
      "</w>ality": 4672,
      "teeth": 4673,
      "incident": 4674,
      "pensées": 4675,
      "année": 4676,
      "médec": 4677,
      "delic": 4678,
      "archite": 4679,
      "</w>........": 4680,
      "spirit": 4681,
      "self": 4682,
      "</w>iait": 4683,
      "</w>riers": 4684,
      "connaître": 4685,
      "</w>ners": 4686,
      "</w>lever": 4687,
      "</w>uted": 4688,
      "divers": 4689,
      "greatly": 4690,
      "malad": 4691,
      "empty": 4692,
      "tantôt": 4693,
      "address": 4694,
      "aimait": 4695,
      "croyait": 4696,
      "absolument": 4697,
      "</w>âch": 4698,
      "</w>vit": 4699,
      "frank": 4700,
      "dois": 4701,
      "épous": 4702,
      "riche": 4703,
      "arrivait": 4704,
      "officer": 4705,
      "réflex": 4706,
      "rassi": 4707,
      "paid": 4708,
      "</w>gry": 4709,
      "embrass": 4710,
      "</w>éch": 4711,
      "</w>met": 4712,
      "</w>êque": 4713,
      "avo": 4714,
      "</w>iled": 4715,
      "douze": 4716,
      "thank": 4717,
      "venge": 4718,
      "venez": 4719,
      "auraient": 4720,
      "absor": 4721,
      "société": 4722,
      "pity": 4723,
      "weather": 4724,
      "projet": 4725,
      "</w>onds": 4726,
      "</w>cked": 4727,
      "parlé": 4728,
      "pride": 4729,
      "envie": 4730,
      "counten": 4731,
      "early": 4732,
      "camarades": 4733,
      "baiss": 4734,
      "sit": 4735,
      "shot": 4736,
      "</w>ames": 4737,
      "trace": 4738,
      "poign": 4739,
      "</w>cks": 4740,
      "devaient": 4741,
      "</w>ancer": 4742,
      "</w>ledge": 4743,
      "</w>oudre": 4744,
      "written": 4745,
      "places": 4746,
      "faces": 4747,
      "lieues": 4748,
      "ressembl": 4749,
      "conscience": 4750,
      "cess": 4751,
      "jau": 4752,
      "sitting": 4753,
      "</w>itch": 4754,
      "compar": 4755,
      "</w>cies": 4756,
      "crainte": 4757,
      "plaisant": 4758,
      "breakfast": 4759,
      "probable": 4760,
      "movement": 4761,
      "lun": 4762,
      "vap": 4763,
      "reed": 4764,
      "</w>ands": 4765,
      "forced": 4766,
      "storm": 4767,
      "</w>mbres": 4768,
      "</w>avant": 4769,
      "</w>itty": 4770,
      "scene": 4771,
      "merve": 4772,
      "accep": 4773,
      "genre": 4774,
      "laissait": 4775,
      "fly": 4776,
      "</w>rage": 4777,
      "celles": 4778,
      "poison": 4779,
      "drawn": 4780,
      "shoulder": 4781,
      "confess": 4782,
      "rappro": 4783,
      "dames": 4784,
      "started": 4785,
      "aide": 4786,
      "vaisse": 4787,
      "</w>mn": 4788,
      "</w>va": 4789,
      "</w>erved": 4790,
      "</w>vey": 4791,
      "prend": 4792,
      "branches": 4793,
      "ouest": 4794,
      "knowing": 4795,
      "becom": 4796,
      "coucher": 4797,
      "beside": 4798,
      "chapeau": 4799,
      "</w>yer": 4800,
      "</w>ieusement": 4801,
      "mem": 4802,
      "tru": 4803,
      "</w>olphe": 4804,
      "</w>ueur": 4805,
      "</w>ueill": 4806,
      "respir": 4807,
      "consult": 4808,
      "trouvai": 4809,
      "pensait": 4810,
      "brid": 4811,
      "thrown": 4812,
      "espèce": 4813,
      "atmosph": 4814,
      "cath": 4815,
      "</w>ressed": 4816,
      "</w>of": 4817,
      "</w>uait": 4818,
      "inhab": 4819,
      "cha": 4820,
      "appris": 4821,
      "</w>lesh": 4822,
      "venue": 4823,
      "affair": 4824,
      "arrêter": 4825,
      "purp": 4826,
      "retrouver": 4827,
      "opposite": 4828,
      "exactly": 4829,
      "aigu": 4830,
      "forgotten": 4831,
      "</w>fax": 4832,
      "</w>light": 4833,
      "chale": 4834,
      "docteur": 4835,
      "ferait": 4836,
      "aimer": 4837,
      "semaine": 4838,
      "désespoir": 4839,
      "simply": 4840,
      "vaste": 4841,
      "</w>umes": 4842,
      "</w>inait": 4843,
      "legs": 4844,
      "guer": 4845,
      "conditions": 4846,
      "mépris": 4847,
      "</w>lot": 4848,
      "threat": 4849,
      "moor": 4850,
      "</w>theless": 4851,
      "</w>idemment": 4852,
      "venaient": 4853,
      "tuer": 4854,
      "nevertheless": 4855,
      "descendre": 4856,
      "beauté": 4857,
      "détails": 4858,
      "fairfax": 4859,
      "énorme": 4860,
      "ears": 4861,
      "ham": 4862,
      "ment": 4863,
      "wine": 4864,
      "</w>reh": 4865,
      "chois": 4866,
      "parents": 4867,
      "drink": 4868,
      "anxious": 4869,
      "square": 4870,
      "occurred": 4871,
      "loud": 4872,
      "lying": 4873,
      "</w>ûmes": 4874,
      "parfois": 4875,
      "étrang": 4876,
      "joye": 4877,
      "harrison": 4878,
      "mauvaise": 4879,
      "bess": 4880,
      "lire": 4881,
      "vic": 4882,
      "</w>pond": 4883,
      "</w>vel": 4884,
      "</w>zen": 4885,
      "determin": 4886,
      "</w>ically": 4887,
      "disant": 4888,
      "amid": 4889,
      "spot": 4890,
      "gliss": 4891,
      "écrire": 4892,
      "</w>ouda": 4893,
      "fourn": 4894,
      "unhapp": 4895,
      "épaule": 4896,
      "tas": 4897,
      "</w>utation": 4898,
      "stir": 4899,
      "armes": 4900,
      "dongo": 4901,
      "doctor": 4902,
      "assure": 4903,
      "</w>acted": 4904,
      "servir": 4905,
      "évidemment": 4906,
      "cruel": 4907,
      "</w>lo": 4908,
      "unfort": 4909,
      "parv": 4910,
      "note": 4911,
      "</w>uls": 4912,
      "crain": 4913,
      "</w>reté": 4914,
      "</w>paravant": 4915,
      "uttered": 4916,
      "society": 4917,
      "bessie": 4918,
      "lé": 4919,
      "tree": 4920,
      "</w>erence": 4921,
      "shook": 4922,
      "desert": 4923,
      "auparavant": 4924,
      "</w>the": 4925,
      "compos": 4926,
      "report": 4927,
      "hung": 4928,
      "build": 4929,
      "fun": 4930,
      "hide": 4931,
      "</w>lers": 4932,
      "</w>istr": 4933,
      "améri": 4934,
      "goût": 4935,
      "lose": 4936,
      "repent": 4937,
      "épée": 4938,
      "opér": 4939,
      "promise": 4940,
      "revol": 4941,
      "approached": 4942,
      "jeter": 4943,
      "compagnon": 4944,
      "settled": 4945,
      "geste": 4946,
      "</w>nant": 4947,
      "</w>ator": 4948,
      "notice": 4949,
      "died": 4950,
      "doux": 4951,
      "thanks": 4952,
      "domestique": 4953,
      "pluie": 4954,
      "attempt": 4955,
      "</w>ech": 4956,
      "</w>ker": 4957,
      "</w>iser": 4958,
      "degre": 4959,
      "</w>arie": 4960,
      "</w>oration": 4961,
      "leg": 4962,
      "parma": 4963,
      "barb": 4964,
      "pleasant": 4965,
      "ideas": 4966,
      "completely": 4967,
      "inconnu": 4968,
      "degrees": 4969,
      "aouda": 4970,
      "gate": 4971,
      "</w>ué": 4972,
      "</w>by": 4973,
      "éto": 4974,
      "</w>osse": 4975,
      "liqu": 4976,
      "poche": 4977,
      "loc": 4978,
      "office": 4979,
      "tomba": 4980,
      "laughing": 4981,
      "rivage": 4982,
      "légère": 4983,
      "liberté": 4984,
      "cree": 4985,
      "eld": 4986,
      "gy": 4987,
      "chaud": 4988,
      "nez": 4989,
      "nobody": 4990,
      "</w>venir": 4991,
      "twice": 4992,
      "obé": 4993,
      "mesure": 4994,
      "presently": 4995,
      "soirée": 4996,
      "</w>while": 4997,
      "représ": 4998,
      "imprud": 4999,
      "bow": 5000,
      "flesh": 5001,
      "mén": 5002,
      "chest": 5003,
      "trom": 5004,
      "brut": 5005,
      "coal": 5006,
      "</w>ift": 5007,
      "</w>tended": 5008,
      "host": 5009,
      "commença": 5010,
      "gloom": 5011,
      "neighbour": 5012,
      "rodolphe": 5013,
      "parme": 5014,
      "pract": 5015,
      "star": 5016,
      "dér": 5017,
      "</w>sif": 5018,
      "</w>tesse": 5019,
      "retourner": 5020,
      "colonists": 5021,
      "connaissance": 5022,
      "suspic": 5023,
      "citad": 5024,
      "</w>uvre": 5025,
      "</w>ailed": 5026,
      "rever": 5027,
      "auquel": 5028,
      "makes": 5029,
      "sentence": 5030,
      "continue": 5031,
      "horreur": 5032,
      "gentil": 5033,
      "recevoir": 5034,
      "simplement": 5035,
      "spring": 5036,
      "impatient": 5037,
      "oublier": 5038,
      "americ": 5039,
      "countenance": 5040,
      "memory": 5041,
      "bitter": 5042,
      "gather": 5043,
      "pant": 5044,
      "wid": 5045,
      "shock": 5046,
      "allaient": 5047,
      "</w>isson": 5048,
      "terres": 5049,
      "conduis": 5050,
      "shouted": 5051,
      "extremely": 5052,
      "ax": 5053,
      "</w>êts": 5054,
      "</w>ork": 5055,
      "invent": 5056,
      "meas": 5057,
      "mosc": 5058,
      "pourrais": 5059,
      "</w>aked": 5060,
      "flots": 5061,
      "endorm": 5062,
      "fenêtres": 5063,
      "empêcher": 5064,
      "</w>known": 5065,
      "convicts": 5066,
      "faint": 5067,
      "rushed": 5068,
      "</w>cles": 5069,
      "</w>oral": 5070,
      "</w>ories": 5071,
      "belles": 5072,
      "grant": 5073,
      "serai": 5074,
      "loge": 5075,
      "ourselves": 5076,
      "interro": 5077,
      "wrote": 5078,
      "maid": 5079,
      "yield": 5080,
      "étouff": 5081,
      "fever": 5082,
      "yellow": 5083,
      "sentit": 5084,
      "indign": 5085,
      "girls": 5086,
      "intérêt": 5087,
      "increased": 5088,
      "ride": 5089,
      "</w>itait": 5090,
      "unknown": 5091,
      "whe": 5092,
      "accent": 5093,
      "marquise": 5094,
      "occupied": 5095,
      "satisfied": 5096,
      "soyez": 5097,
      "hiver": 5098,
      "xx": 5099,
      "</w>rase": 5100,
      "changed": 5101,
      "</w>ics": 5102,
      "rese": 5103,
      "watson": 5104,
      "guère": 5105,
      "sembla": 5106,
      "</w>leton": 5107,
      "honte": 5108,
      "possession": 5109,
      "globe": 5110,
      "boug": 5111,
      "game": 5112,
      "pes": 5113,
      "vive": 5114,
      "wide": 5115,
      "</w>ford": 5116,
      "</w>la": 5117,
      "</w>hip": 5118,
      "soix": 5119,
      "lift": 5120,
      "roch": 5121,
      "points": 5122,
      "prix": 5123,
      "latin": 5124,
      "doucement": 5125,
      "vengeance": 5126,
      "cass": 5127,
      "kitty": 5128,
      "</w>nest": 5129,
      "meur": 5130,
      "sugg": 5131,
      "grève": 5132,
      "</w>ooks": 5133,
      "doors": 5134,
      "cop": 5135,
      "</w>ishing": 5136,
      "pointed": 5137,
      "falling": 5138,
      "escaped": 5139,
      "singular": 5140,
      "jeanlin": 5141,
      "majesté": 5142,
      "sommeil": 5143,
      "obscurité": 5144,
      "opportunity": 5145,
      "bent": 5146,
      "dare": 5147,
      "kil": 5148,
      "</w>rance": 5149,
      "</w>des": 5150,
      "anger": 5151,
      "</w>omin": 5152,
      "stap": 5153,
      "parts": 5154,
      "temper": 5155,
      "rooms": 5156,
      "</w>ettait": 5157,
      "croyez": 5158,
      "prodig": 5159,
      "splend": 5160,
      "melanch": 5161,
      "bé": 5162,
      "pitié": 5163,
      "</w>ana": 5164,
      "forte": 5165,
      "</w>onné": 5166,
      "peuple": 5167,
      "broad": 5168,
      "</w>azz": 5169,
      "huge": 5170,
      "fifteen": 5171,
      "gagner": 5172,
      "valet": 5173,
      "équip": 5174,
      "evidently": 5175,
      "melancholy": 5176,
      "houses": 5177,
      "iv": 5178,
      "ow": 5179,
      "sainte": 5180,
      "</w>come": 5181,
      "</w>hes": 5182,
      "liked": 5183,
      "mary": 5184,
      "pointe": 5185,
      "clair": 5186,
      "lover": 5187,
      "blind": 5188,
      "temple": 5189,
      "conduite": 5190,
      "habits": 5191,
      "reading": 5192,
      "meanwhile": 5193,
      "succeeded": 5194,
      "leagues": 5195,
      "répliqua": 5196,
      "fé": 5197,
      "gig": 5198,
      "recher": 5199,
      "</w>ster": 5200,
      "</w>unately": 5201,
      "crut": 5202,
      "prev": 5203,
      "</w>aution": 5204,
      "accro": 5205,
      "immédi": 5206,
      "observer": 5207,
      "humeur": 5208,
      "christ": 5209,
      "mosca": 5210,
      "morte": 5211,
      "</w>hait": 5212,
      "proud": 5213,
      "arres": 5214,
      "greatest": 5215,
      "contrary": 5216,
      "constru": 5217,
      "majesty": 5218,
      "immobile": 5219,
      "baskerville": 5220,
      "tante": 5221,
      "wounded": 5222,
      "wretched": 5223,
      "jealous": 5224,
      "</w>ulf": 5225,
      "appare": 5226,
      "</w>asses": 5227,
      "soudain": 5228,
      "count": 5229,
      "égy": 5230,
      "dirige": 5231,
      "murmured": 5232,
      "bleu": 5233,
      "voudrais": 5234,
      "ice": 5235,
      "ende": 5236,
      "</w>anté": 5237,
      "avenir": 5238,
      "</w>iennent": 5239,
      "</w>ules": 5240,
      "aunt": 5241,
      "</w>unk": 5242,
      "adieu": 5243,
      "chee": 5244,
      "</w>moire": 5245,
      "yester": 5246,
      "provisions": 5247,
      "soixante": 5248,
      "pê": 5249,
      "pous": 5250,
      "sought": 5251,
      "</w>ashed": 5252,
      "</w>adis": 5253,
      "</w>illet": 5254,
      "</w>érence": 5255,
      "charl": 5256,
      "indic": 5257,
      "promised": 5258,
      "feelings": 5259,
      "remarqu": 5260,
      "crossed": 5261,
      "exemple": 5262,
      "yesterday": 5263,
      "!...": 5264,
      "fet": 5265,
      "gas": 5266,
      "gib": 5267,
      "rig": 5268,
      "</w>lls": 5269,
      "avance": 5270,
      "</w>idi": 5271,
      "uneas": 5272,
      "worse": 5273,
      "animaux": 5274,
      "fusil": 5275,
      "extreme": 5276,
      "révol": 5277,
      "lune": 5278,
      "péri": 5279,
      "</w>ding": 5280,
      "</w>agr": 5281,
      "moon": 5282,
      "proper": 5283,
      "</w>ignes": 5284,
      "voulais": 5285,
      "redou": 5286,
      "galop": 5287,
      "bonnes": 5288,
      "ouverte": 5289,
      "shadow": 5290,
      "dout": 5291,
      "rab": 5292,
      "tôt": 5293,
      "writ": 5294,
      "</w>hold": 5295,
      "</w>leurs": 5296,
      "toilet": 5297,
      "prise": 5298,
      "visible": 5299,
      "officier": 5300,
      "combat": 5301,
      "suspect": 5302,
      "montrer": 5303,
      "magnificent": 5304,
      "15": 5305,
      "mètres": 5306,
      "pang": 5307,
      "</w>ème": 5308,
      "</w>anou": 5309,
      "lever": 5310,
      "stat": 5311,
      "</w>aume": 5312,
      "knock": 5313,
      "dry": 5314,
      "glac": 5315,
      "firent": 5316,
      "souhait": 5317,
      "couvert": 5318,
      "attendant": 5319,
      "résult": 5320,
      "signor": 5321,
      "burning": 5322,
      "worthy": 5323,
      "canadian": 5324,
      "grimaud": 5325,
      "origin": 5326,
      "purpose": 5327,
      "guerre": 5328,
      "achev": 5329,
      "eager": 5330,
      "fleur": 5331,
      "lines": 5332,
      "</w>oise": 5333,
      "</w>liv": 5334,
      "chief": 5335,
      "saved": 5336,
      "montre": 5337,
      "</w>acles": 5338,
      "dén": 5339,
      "gris": 5340,
      "</w>liers": 5341,
      "coat": 5342,
      "passant": 5343,
      "anyone": 5344,
      "troisième": 5345,
      "envelopp": 5346,
      "disparu": 5347,
      "endeav": 5348,
      "cres": 5349,
      "dan": 5350,
      "tiens": 5351,
      "</w>kely": 5352,
      "unif": 5353,
      "</w>vez": 5354,
      "paraît": 5355,
      "verre": 5356,
      "touched": 5357,
      "devint": 5358,
      "puisqu": 5359,
      "ministre": 5360,
      "troupe": 5361,
      "virt": 5362,
      "unhappy": 5363,
      "east": 5364,
      "rise": 5365,
      "</w>ium": 5366,
      "</w>aft": 5367,
      "</w>imer": 5368,
      "</w>hern": 5369,
      "marcher": 5370,
      "faits": 5371,
      "horror": 5372,
      "connais": 5373,
      "finding": 5374,
      "sauver": 5375,
      "organ": 5376,
      "</w>ovic": 5377,
      "motionless": 5378,
      "wit": 5379,
      "</w>occ": 5380,
      "</w>leep": 5381,
      "forest": 5382,
      "forth": 5383,
      "forces": 5384,
      "saur": 5385,
      "peau": 5386,
      "</w>ueux": 5387,
      "cesse": 5388,
      "heureusement": 5389,
      "harp": 5390,
      "ordres": 5391,
      "major": 5392,
      "intéress": 5393,
      "apprendre": 5394,
      "prepared": 5395,
      ".--": 5396,
      "dai": 5397,
      "elect": 5398,
      "mich": 5399,
      "</w>iam": 5400,
      "</w>uge": 5401,
      "grad": 5402,
      "disg": 5403,
      "merci": 5404,
      "condam": 5405,
      "approcha": 5406,
      "rivière": 5407,
      "disposition": 5408,
      "judge": 5409,
      "canadien": 5410,
      "chaleur": 5411,
      "éveill": 5412,
      "</w>endar": 5413,
      "----": 5414,
      "appelle": 5415,
      "coach": 5416,
      "firm": 5417,
      "caf": 5418,
      "caused": 5419,
      "froide": 5420,
      "animals": 5421,
      "soldats": 5422,
      "demeure": 5423,
      "according": 5424,
      "battle": 5425,
      "hotel": 5426,
      "religion": 5427,
      "event": 5428,
      "rues": 5429,
      "</w>yle": 5430,
      "thorn": 5431,
      "seigneur": 5432,
      "asleep": 5433,
      "</w>quelles": 5434,
      "portes": 5435,
      "expos": 5436,
      "servants": 5437,
      "gardes": 5438,
      "pauvres": 5439,
      "imagin": 5440,
      "smiled": 5441,
      "august": 5442,
      "doigts": 5443,
      "brow": 5444,
      "</w>ode": 5445,
      "</w>uv": 5446,
      "manque": 5447,
      "</w>seless": 5448,
      "prefer": 5449,
      "</w>udder": 5450,
      "rendez": 5451,
      "gross": 5452,
      "langu": 5453,
      "profondément": 5454,
      "aventure": 5455,
      "tong": 5456,
      "viens": 5457,
      "</w>reed": 5458,
      "encl": 5459,
      "phrase": 5460,
      "</w>grat": 5461,
      "armand": 5462,
      "bataille": 5463,
      "convain": 5464,
      "advanced": 5465,
      "quitté": 5466,
      "conduct": 5467,
      "popul": 5468,
      "accepter": 5469,
      "ner": 5470,
      "wand": 5471,
      "éd": 5472,
      "</w>chief": 5473,
      "</w>aison": 5474,
      "confidence": 5475,
      "couleur": 5476,
      "</w>oncé": 5477,
      "holding": 5478,
      "machine": 5479,
      "bond": 5480,
      "digne": 5481,
      "ger": 5482,
      "</w>ront": 5483,
      "</w>uous": 5484,
      "</w>èvre": 5485,
      "</w>enod": 5486,
      "</w>oted": 5487,
      "seat": 5488,
      "</w>ald": 5489,
      "</w>str": 5490,
      "stair": 5491,
      "stones": 5492,
      "demandait": 5493,
      "insu": 5494,
      "engage": 5495,
      "revoir": 5496,
      "breast": 5497,
      "suffer": 5498,
      "rude": 5499,
      "patience": 5500,
      "prisoner": 5501,
      "pareille": 5502,
      "sacrifice": 5503,
      "misérable": 5504,
      "cage": 5505,
      "</w>get": 5506,
      "</w>eneur": 5507,
      "</w>atique": 5508,
      "</w>usc": 5509,
      "</w>rières": 5510,
      "neg": 5511,
      "excess": 5512,
      "</w>iving": 5513,
      "served": 5514,
      "</w>issons": 5515,
      "justement": 5516,
      "speech": 5517,
      "supper": 5518,
      "explain": 5519,
      "astonished": 5520,
      "agréable": 5521,
      "représent": 5522,
      "gentilhomme": 5523,
      "cul": 5524,
      "fussent": 5525,
      "</w>cing": 5526,
      "</w>ua": 5527,
      "</w>lets": 5528,
      "</w>uring": 5529,
      "prenant": 5530,
      "trying": 5531,
      "</w>atement": 5532,
      "recul": 5533,
      "friday": 5534,
      "fallut": 5535,
      "valenod": 5536,
      "recommand": 5537,
      "sensible": 5538,
      "</w>ism": 5539,
      "stretched": 5540,
      "songer": 5541,
      "partout": 5542,
      "</w>agnes": 5543,
      "peuvent": 5544,
      "personnes": 5545,
      "birds": 5546,
      "hesit": 5547,
      "oper": 5548,
      "pounds": 5549,
      "vide": 5550,
      "zach": 5551,
      "moving": 5552,
      "trave": 5553,
      "fré": 5554,
      "allais": 5555,
      "usage": 5556,
      "greater": 5557,
      "échelle": 5558,
      "comprom": 5559,
      "remark": 5560,
      "streets": 5561,
      "zacharie": 5562,
      "gendar": 5563,
      "</w>ivers": 5564,
      "</w>aster": 5565,
      "heat": 5566,
      "jeu": 5567,
      "exac": 5568,
      "exerc": 5569,
      "iss": 5570,
      "</w>sip": 5571,
      "author": 5572,
      "</w>ified": 5573,
      "sentir": 5574,
      "corrid": 5575,
      "ended": 5576,
      "insol": 5577,
      "suivi": 5578,
      "émotion": 5579,
      "pirard": 5580,
      "virg": 5581,
      "introdu": 5582,
      "hôte": 5583,
      "lant": 5584,
      "pai": 5585,
      "deg": 5586,
      "enr": 5587,
      "</w>airement": 5588,
      "agreed": 5589,
      "adresse": 5590,
      "</w>ateurs": 5591,
      "regular": 5592,
      "terrif": 5593,
      "propri": 5594,
      "grief": 5595,
      "boutique": 5596,
      "faible": 5597,
      "navig": 5598,
      "powerful": 5599,
      "quietly": 5600,
      "jacques": 5601,
      "cave": 5602,
      "dying": 5603,
      "</w>ians": 5604,
      "</w>cre": 5605,
      "</w>jour": 5606,
      "isol": 5607,
      "manquer": 5608,
      "folle": 5609,
      "result": 5610,
      "crown": 5611,
      "entendis": 5612,
      "entièrement": 5613,
      "soupir": 5614,
      "traits": 5615,
      "promenade": 5616,
      "hoped": 5617,
      "hélas": 5618,
      "dor": 5619,
      "fancy": 5620,
      "vas": 5621,
      "vac": 5622,
      "enchant": 5623,
      "onze": 5624,
      "weight": 5625,
      "maisons": 5626,
      "amie": 5627,
      "puisse": 5628,
      "silver": 5629,
      "advice": 5630,
      "ladder": 5631,
      "rasseneur": 5632,
      "search": 5633,
      "roof": 5634,
      "fau": 5635,
      "murs": 5636,
      "</w>isé": 5637,
      "feared": 5638,
      "écou": 5639,
      "écoul": 5640,
      "secours": 5641,
      "milan": 5642,
      "attack": 5643,
      "misfort": 5644,
      "arrival": 5645,
      "extrém": 5646,
      "merveille": 5647,
      "fave": 5648,
      "lux": 5649,
      "pou": 5650,
      "</w>eper": 5651,
      "anne": 5652,
      "</w>llo": 5653,
      "soeur": 5654,
      "proch": 5655,
      "</w>ords": 5656,
      "</w>oirs": 5657,
      "courir": 5658,
      "commiss": 5659,
      "couple": 5660,
      "champs": 5661,
      "boute": 5662,
      "current": 5663,
      "jeté": 5664,
      "cheminée": 5665,
      "presented": 5666,
      "selon": 5667,
      "prospect": 5668,
      "</w>œbus": 5669,
      "shel": 5670,
      "</w>icule": 5671,
      "exag": 5672,
      "</w>deacon": 5673,
      "roche": 5674,
      "phoe": 5675,
      "phœbus": 5676,
      "</w>graph": 5677,
      "inspir": 5678,
      "mettait": 5679,
      "voisin": 5680,
      "honnête": 5681,
      "phoebus": 5682,
      "bast": 5683,
      "nation": 5684,
      "tendre": 5685,
      "</w>ming": 5686,
      "</w>vering": 5687,
      "plans": 5688,
      "sable": 5689,
      "establ": 5690,
      "likely": 5691,
      "nose": 5692,
      "intrig": 5693,
      "écras": 5694,
      "impro": 5695,
      "providence": 5696,
      "settlers": 5697,
      "ancien": 5698,
      "récit": 5699,
      "tranquillement": 5700,
      "parcour": 5701,
      "depths": 5702,
      "17": 5703,
      "foss": 5704,
      "sigh": 5705,
      "ty": 5706,
      "éner": 5707,
      "</w>once": 5708,
      "</w>isters": 5709,
      "</w>ller": 5710,
      "unless": 5711,
      "</w>utely": 5712,
      "</w>ril": 5713,
      "étern": 5714,
      "sul": 5715,
      "</w>ignait": 5716,
      "tenez": 5717,
      "semblaient": 5718,
      "triomp": 5719,
      "returning": 5720,
      "</w>ogue": 5721,
      "archdeacon": 5722,
      "jump": 5723,
      "strike": 5724,
      "observation": 5725,
      "torrent": 5726,
      "protest": 5727,
      "remembered": 5728,
      "vaisseau": 5729,
      "determined": 5730,
      "ling": 5731,
      "oct": 5732,
      "sides": 5733,
      "vel": 5734,
      "</w>zaine": 5735,
      "seas": 5736,
      "</w>riez": 5737,
      "</w>ureur": 5738,
      "betray": 5739,
      "</w>psy": 5740,
      "putting": 5741,
      "réserv": 5742,
      "archidi": 5743,
      "oreilles": 5744,
      "smoke": 5745,
      "persuad": 5746,
      "departure": 5747,
      "archidiacre": 5748,
      "bête": 5749,
      "mult": 5750,
      "youth": 5751,
      "</w>éder": 5752,
      "</w>oved": 5753,
      "</w>org": 5754,
      "qual": 5755,
      "unable": 5756,
      "</w>teau": 5757,
      "écart": 5758,
      "</w>ancing": 5759,
      "certes": 5760,
      "voyons": 5761,
      "refused": 5762,
      "solitude": 5763,
      "ventre": 5764,
      "ramen": 5765,
      "oublié": 5766,
      "whisper": 5767,
      "stapleton": 5768,
      "jur": 5769,
      "laisse": 5770,
      "romp": 5771,
      "vête": 5772,
      "</w>pend": 5773,
      "</w>rimer": 5774,
      "</w>acked": 5775,
      "</w>igned": 5776,
      "parlant": 5777,
      "connaissait": 5778,
      "absur": 5779,
      "aimable": 5780,
      "sév": 5781,
      "spoken": 5782,
      "soldiers": 5783,
      "probably": 5784,
      "gallery": 5785,
      "fingers": 5786,
      "interrupted": 5787,
      "dared": 5788,
      "</w>ouille": 5789,
      "due": 5790,
      "fraî": 5791,
      "longs": 5792,
      "accustom": 5793,
      "minister": 5794,
      "nomm": 5795,
      "terreur": 5796,
      "seuls": 5797,
      "</w>ibles": 5798,
      "souper": 5799,
      "laughed": 5800,
      "admirable": 5801,
      "architecture": 5802,
      "rough": 5803,
      "</w>uction": 5804,
      "</w>lock": 5805,
      "sher": 5806,
      "voile": 5807,
      "</w>érer": 5808,
      "</w>aret": 5809,
      "caver": 5810,
      "espère": 5811,
      "relations": 5812,
      "triump": 5813,
      "skin": 5814,
      "lampe": 5815,
      "échapper": 5816,
      "astonishment": 5817,
      "mistaken": 5818,
      "inexp": 5819,
      "tired": 5820,
      "</w>over": 5821,
      "</w>isme": 5822,
      "</w>chée": 5823,
      "</w>tering": 5824,
      "pressed": 5825,
      "cool": 5826,
      "atta": 5827,
      "inclin": 5828,
      "phras": 5829,
      "resté": 5830,
      "pulled": 5831,
      "laissant": 5832,
      "fatal": 5833,
      "détour": 5834,
      "sauvages": 5835,
      "magnifique": 5836,
      "cuisine": 5837,
      "</w>écile": 5838,
      "race": 5839,
      "tours": 5840,
      "</w>tle": 5841,
      "</w>arg": 5842,
      "angry": 5843,
      "</w>room": 5844,
      "project": 5845,
      "manquait": 5846,
      "amant": 5847,
      "portion": 5848,
      "viend": 5849,
      "écriai": 5850,
      "vitesse": 5851,
      "permission": 5852,
      "frightful": 5853,
      "sorry": 5854,
      "médecin": 5855,
      "born": 5856,
      "gle": 5857,
      "kitch": 5858,
      "lin": 5859,
      "taste": 5860,
      "</w>cel": 5861,
      "</w>opt": 5862,
      "doc": 5863,
      "répand": 5864,
      "remettre": 5865,
      "avantage": 5866,
      "cherchait": 5867,
      "suivit": 5868,
      "trah": 5869,
      "rapide": 5870,
      "cabinet": 5871,
      "dévor": 5872,
      "edge": 5873,
      "stupid": 5874,
      "civil": 5875,
      "custom": 5876,
      "</w>pes": 5877,
      "</w>omie": 5878,
      "paral": 5879,
      "dism": 5880,
      "réellement": 5881,
      "</w>érir": 5882,
      "bold": 5883,
      "corres": 5884,
      "finit": 5885,
      "supposed": 5886,
      "refuge": 5887,
      "garder": 5888,
      "gardiner": 5889,
      "solit": 5890,
      "latitude": 5891,
      "rentrer": 5892,
      "devenu": 5893,
      "reprendre": 5894,
      "jan": 5895,
      "mers": 5896,
      "useless": 5897,
      "</w>ouche": 5898,
      "</w>stairs": 5899,
      "étud": 5900,
      "sorel": 5901,
      "progr": 5902,
      "canal": 5903,
      "</w>uded": 5904,
      "poste": 5905,
      "journal": 5906,
      "tué": 5907,
      "install": 5908,
      "arranged": 5909,
      "receive": 5910,
      "</w>what": 5911,
      "henri": 5912,
      "history": 5913,
      "appeler": 5914,
      "augment": 5915,
      "gazed": 5916,
      "oiseaux": 5917,
      "anxiety": 5918,
      "books": 5919,
      "lueur": 5920,
      "yours": 5921,
      "</w>iqu": 5922,
      "</w>asant": 5923,
      "moder": 5924,
      "dun": 5925,
      "alive": 5926,
      "</w>apped": 5927,
      "suppli": 5928,
      "carefully": 5929,
      "détach": 5930,
      "tourna": 5931,
      "devenait": 5932,
      "derriere": 5933,
      "langue": 5934,
      "pistoles": 5935,
      "cadav": 5936,
      "vendredi": 5937,
      "avoid": 5938,
      "phrases": 5939,
      "avert": 5940,
      "bishop": 5941,
      "vaut": 5942,
      "</w>ring": 5943,
      "</w>onf": 5944,
      "</w>veu": 5945,
      "safe": 5946,
      "chef": 5947,
      "fera": 5948,
      "meters": 5949,
      "thrust": 5950,
      "descri": 5951,
      "battre": 5952,
      "rub": 5953,
      "formid": 5954,
      "emotion": 5955,
      "hearing": 5956,
      "noirs": 5957,
      "trembling": 5958,
      "orgueil": 5959,
      "growing": 5960,
      "prenez": 5961,
      "morceau": 5962,
      "gypsy": 5963,
      "thornfield": 5964,
      "bay": 5965,
      "fail": 5966,
      "laissez": 5967,
      "mante": 5968,
      "</w>orous": 5969,
      "détr": 5970,
      "features": 5971,
      "seraient": 5972,
      "compter": 5973,
      "parties": 5974,
      "inside": 5975,
      "conduire": 5976,
      "muraille": 5977,
      "invol": 5978,
      "appelait": 5979,
      "</w>phew": 5980,
      "ennuy": 5981,
      "extraordinary": 5982,
      "musketeers": 5983,
      "prolong": 5984,
      "chauss": 5985,
      "charlotte": 5986,
      "</w>occup": 5987,
      "16": 5988,
      ":--": 5989,
      "bén": 5990,
      "whist": 5991,
      "chagr": 5992,
      "nephew": 5993,
      "étonnement": 5994,
      "hero": 5995,
      "voreux": 5996,
      "</w>unt": 5997,
      "agissait": 5998,
      "</w>cial": 5999,
      "crav": 6000,
      "couver": 6001,
      "conceal": 6002,
      "meeting": 6003,
      "rapidly": 6004,
      "mousquetaires": 6005,
      "eleven": 6006,
      "exha": 6007,
      "obtenir": 6008,
      "sympath": 6009,
      "cow": 6010,
      "</w>ètre": 6011,
      "grass": 6012,
      "mark": 6013,
      "perf": 6014,
      "repas": 6015,
      "épaisse": 6016,
      "guill": 6017,
      "parla": 6018,
      "curious": 6019,
      "clean": 6020,
      "francis": 6021,
      "ordered": 6022,
      "princes": 6023,
      "swear": 6024,
      "dining": 6025,
      "malheureuse": 6026,
      "créature": 6027,
      "accustomed": 6028,
      "banc": 6029,
      "lanc": 6030,
      "pom": 6031,
      "pair": 6032,
      "tam": 6033,
      "wound": 6034,
      "</w>oie": 6035,
      "</w>anes": 6036,
      "conne": 6037,
      "outre": 6038,
      "somewhat": 6039,
      "assured": 6040,
      "attitude": 6041,
      "keen": 6042,
      "brown": 6043,
      "aimé": 6044,
      "considered": 6045,
      "précisément": 6046,
      "aperçus": 6047,
      "rencontrer": 6048,
      "décidé": 6049,
      "léger": 6050,
      "dang": 6051,
      "haine": 6052,
      "mend": 6053,
      "rive": 6054,
      "</w>ipp": 6055,
      "</w>loss": 6056,
      "</w>pte": 6057,
      "</w>voy": 6058,
      "shudder": 6059,
      "</w>aining": 6060,
      "abomin": 6061,
      "</w>ustri": 6062,
      "advers": 6063,
      "</w>ension": 6064,
      "</w>ignit": 6065,
      "confiance": 6066,
      "music": 6067,
      "jouer": 6068,
      "poussa": 6069,
      "devenir": 6070,
      "sûre": 6071,
      "semaines": 6072,
      "weeks": 6073,
      "étonné": 6074,
      "</w>onça": 6075,
      "produced": 6076,
      "apercevoir": 6077,
      "faveur": 6078,
      "cun": 6079,
      "élect": 6080,
      "….": 6081,
      "</w>cal": 6082,
      "</w>ara": 6083,
      "allée": 6084,
      "couldn": 6085,
      "</w>igner": 6086,
      "artic": 6087,
      "corde": 6088,
      "soulev": 6089,
      "désire": 6090,
      "distant": 6091,
      "emmen": 6092,
      "géné": 6093,
      "humble": 6094,
      "millions": 6095,
      "concealed": 6096,
      "pareil": 6097,
      "répétait": 6098,
      "</w>zzy": 6099,
      "degree": 6100,
      "aise": 6101,
      "labour": 6102,
      "</w>quets": 6103,
      "lesquels": 6104,
      "shr": 6105,
      "asking": 6106,
      "</w>neur": 6107,
      "auber": 6108,
      "alas": 6109,
      "scène": 6110,
      "corn": 6111,
      "</w>ernal": 6112,
      "famous": 6113,
      "patron": 6114,
      "penetr": 6115,
      "galais": 6116,
      "fleurs": 6117,
      "snow": 6118,
      "frightened": 6119,
      "découvrir": 6120,
      "kitchen": 6121,
      "correspond": 6122,
      "vêt": 6123,
      "wore": 6124,
      "</w>ising": 6125,
      "noy": 6126,
      "repouss": 6127,
      "spar": 6128,
      "objet": 6129,
      "élég": 6130,
      "côtés": 6131,
      "montagne": 6132,
      "montagnes": 6133,
      "grey": 6134,
      "risk": 6135,
      "</w>rieres": 6136,
      "driven": 6137,
      "volonté": 6138,
      "pangloss": 6139,
      "gam": 6140,
      "lourd": 6141,
      "sick": 6142,
      "tum": 6143,
      "</w>ny": 6144,
      "</w>èche": 6145,
      "</w>enz": 6146,
      "tot": 6147,
      "leaves": 6148,
      "lap": 6149,
      "atro": 6150,
      "traces": 6151,
      "</w>trait": 6152,
      "amitié": 6153,
      "perio": 6154,
      "flott": 6155,
      "courut": 6156,
      "distinct": 6157,
      "masse": 6158,
      "entière": 6159,
      "voila": 6160,
      "retourna": 6161,
      "folie": 6162,
      "inquiétude": 6163,
      "corridor": 6164,
      "cer": 6165,
      "gorge": 6166,
      "pushed": 6167,
      "éminence": 6168,
      "</w>éf": 6169,
      "</w>jection": 6170,
      "</w>quaient": 6171,
      "plun": 6172,
      "</w>auff": 6173,
      "proved": 6174,
      "amoureux": 6175,
      "serpent": 6176,
      "autrement": 6177,
      "trouvaient": 6178,
      "servi": 6179,
      "renvers": 6180,
      "source": 6181,
      "suffered": 6182,
      "mission": 6183,
      "observe": 6184,
      "contempl": 6185,
      "vari": 6186,
      "</w>ription": 6187,
      "immédiatement": 6188,
      "fâ": 6189,
      "hât": 6190,
      "wret": 6191,
      "</w>inced": 6192,
      "envers": 6193,
      "siff": 6194,
      "marie": 6195,
      "poids": 6196,
      "repar": 6197,
      "moreover": 6198,
      "hole": 6199,
      "continuait": 6200,
      "payer": 6201,
      "remarked": 6202,
      "candle": 6203,
      "sensation": 6204,
      "creatures": 6205,
      "</w>iii": 6206,
      "liberty": 6207,
      "lutte": 6208,
      "dreadful": 6209,
      "nau": 6210,
      "serez": 6211,
      "degr": 6212,
      "union": 6213,
      "health": 6214,
      "</w>ieuses": 6215,
      "neveu": 6216,
      "paraître": 6217,
      "aveug": 6218,
      "réd": 6219,
      "marked": 6220,
      "compt": 6221,
      "seek": 6222,
      "adopt": 6223,
      "boire": 6224,
      "retreat": 6225,
      "resp": 6226,
      "crimin": 6227,
      "merc": 6228,
      "guards": 6229,
      "déliv": 6230,
      "platform": 6231,
      "becoming": 6232,
      "ecc": 6233,
      "fél": 6234,
      "mud": 6235,
      "tin": 6236,
      "</w>gate": 6237,
      "</w>iece": 6238,
      "stock": 6239,
      "réuss": 6240,
      "goes": 6241,
      "</w>ifice": 6242,
      "école": 6243,
      "crus": 6244,
      "aurai": 6245,
      "tenant": 6246,
      "connu": 6247,
      "capital": 6248,
      "explained": 6249,
      "prudent": 6250,
      "required": 6251,
      "bâtiment": 6252,
      "particularly": 6253,
      "gesture": 6254,
      "gratitude": 6255,
      "electric": 6256,
      "café": 6257,
      "mi": 6258,
      "</w>more": 6259,
      "</w>vant": 6260,
      "univers": 6261,
      "arbre": 6262,
      "maréch": 6263,
      "verrieres": 6264,
      "écouter": 6265,
      "croix": 6266,
      "certains": 6267,
      "sooner": 6268,
      "durant": 6269,
      "pierres": 6270,
      "derniers": 6271,
      "tranquill": 6272,
      "tournant": 6273,
      "circonstances": 6274,
      "enemy": 6275,
      "mam": 6276,
      "santé": 6277,
      "</w>ius": 6278,
      "</w>adventure": 6279,
      "ones": 6280,
      "</w>quently": 6281,
      "lest": 6282,
      "aviez": 6283,
      "voie": 6284,
      "touts": 6285,
      "fold": 6286,
      "agir": 6287,
      "</w>ckon": 6288,
      "</w>enses": 6289,
      "scre": 6290,
      "eyre": 6291,
      "incess": 6292,
      "entreten": 6293,
      "metres": 6294,
      "tremble": 6295,
      "mortimer": 6296,
      "humaine": 6297,
      "également": 6298,
      "delay": 6299,
      "marchait": 6300,
      "</w>ança": 6301,
      "cacher": 6302,
      "communication": 6303,
      "instrument": 6304,
      "considerable": 6305,
      "sérieux": 6306,
      "apartment": 6307,
      "imb": 6308,
      "jadis": 6309,
      "luck": 6310,
      "</w>lier": 6311,
      "</w>ètement": 6312,
      "thunder": 6313,
      "</w>reau": 6314,
      "enlev": 6315,
      "</w>alled": 6316,
      "isn": 6317,
      "lizzy": 6318,
      "</w>sier": 6319,
      "glim": 6320,
      "miserable": 6321,
      "drown": 6322,
      "lighted": 6323,
      "constant": 6324,
      "events": 6325,
      "rencontre": 6326,
      "recognized": 6327,
      "rouges": 6328,
      "siècle": 6329,
      "language": 6330,
      "\"'": 6331,
      "ease": 6332,
      "hos": 6333,
      "pin": 6334,
      "row": 6335,
      "</w>ège": 6336,
      "</w>quant": 6337,
      "forêt": 6338,
      "</w>agg": 6339,
      "armed": 6340,
      "grég": 6341,
      "</w>trade": 6342,
      "manif": 6343,
      "</w>ivid": 6344,
      "brand": 6345,
      "verrières": 6346,
      "retomb": 6347,
      "prepar": 6348,
      "chargé": 6349,
      "capt": 6350,
      "appartement": 6351,
      "charmante": 6352,
      "occasions": 6353,
      "soldier": 6354,
      "croyais": 6355,
      "instruments": 6356,
      "undert": 6357,
      "extraordinaire": 6358,
      "physion": 6359,
      "assassin": 6360,
      "équipage": 6361,
      "égypt": 6362,
      "octo": 6363,
      "bure": 6364,
      "</w>dans": 6365,
      "ingram": 6366,
      "unf": 6367,
      "choc": 6368,
      "membres": 6369,
      "</w>verse": 6370,
      "comr": 6371,
      "comprit": 6372,
      "</w>endu": 6373,
      "</w>nements": 6374,
      "style": 6375,
      "verd": 6376,
      "spend": 6377,
      "enfer": 6378,
      "cries": 6379,
      "individ": 6380,
      "prie": 6381,
      "telling": 6382,
      "delà": 6383,
      "excurs": 6384,
      "galerie": 6385,
      "facilement": 6386,
      "curiosity": 6387,
      "leaning": 6388,
      "extrémité": 6389,
      "cac": 6390,
      "fame": 6391,
      "tut": 6392,
      "yard": 6393,
      "yards": 6394,
      "</w>lée": 6395,
      "</w>but": 6396,
      "</w>iture": 6397,
      "seize": 6398,
      "arc": 6399,
      "lives": 6400,
      "</w>istes": 6401,
      "</w>umer": 6402,
      "remerc": 6403,
      "aftern": 6404,
      "scand": 6405,
      "journ": 6406,
      "lande": 6407,
      "</w>ducation": 6408,
      "étranger": 6409,
      "recolle": 6410,
      "envoyer": 6411,
      "</w>onçait": 6412,
      "</w>iliar": 6413,
      "surrounded": 6414,
      "stairc": 6415,
      "dust": 6416,
      "gé": 6417,
      "gaze": 6418,
      "oliv": 6419,
      "ruis": 6420,
      "</w>oke": 6421,
      "</w>erious": 6422,
      "</w>asing": 6423,
      "</w>ambo": 6424,
      "estim": 6425,
      "</w>ints": 6426,
      "passions": 6427,
      "</w>onnait": 6428,
      "repl": 6429,
      "assist": 6430,
      "ouvriers": 6431,
      "hurried": 6432,
      "laquais": 6433,
      "listening": 6434,
      "raconter": 6435,
      "produis": 6436,
      "absolutely": 6437,
      "causer": 6438,
      "atteindre": 6439,
      "curiosité": 6440,
      "reconnaissance": 6441,
      "gradually": 6442,
      "triumph": 6443,
      "naufr": 6444,
      "ache": 6445,
      "cu": 6446,
      "gê": 6447,
      "rate": 6448,
      "rail": 6449,
      "tide": 6450,
      "éb": 6451,
      "</w>ède": 6452,
      "</w>antic": 6453,
      "</w>rique": 6454,
      "changer": 6455,
      "frais": 6456,
      "coff": 6457,
      "obey": 6458,
      "bonadventure": 6459,
      "vieill": 6460,
      "everyone": 6461,
      "sentais": 6462,
      "smiling": 6463,
      "occu": 6464,
      "engaged": 6465,
      "tourner": 6466,
      "discour": 6467,
      "powder": 6468,
      "dimin": 6469,
      "period": 6470,
      "14": 6471,
      "amp": 6472,
      "base": 6473,
      "bomb": 6474,
      "fosse": 6475,
      "louv": 6476,
      "wed": 6477,
      "</w>fish": 6478,
      "</w>mont": 6479,
      "</w>rect": 6480,
      "dete": 6481,
      "ener": 6482,
      "</w>rose": 6483,
      "chère": 6484,
      "étiez": 6485,
      "</w>idité": 6486,
      "</w>neys": 6487,
      "</w>illé": 6488,
      "aurez": 6489,
      "distress": 6490,
      "</w>sière": 6491,
      "</w>uished": 6492,
      "terms": 6493,
      "looks": 6494,
      "demandé": 6495,
      "continent": 6496,
      "</w>etta": 6497,
      "levant": 6498,
      "ruin": 6499,
      "imagined": 6500,
      "patient": 6501,
      "</w>board": 6502,
      "bottle": 6503,
      "ridicule": 6504,
      "delighted": 6505,
      "expliquer": 6506,
      "parlez": 6507,
      "bridge": 6508,
      "virgin": 6509,
      "énerg": 6510,
      "cred": 6511,
      "fill": 6512,
      "food": 6513,
      "mile": 6514,
      "rôle": 6515,
      "</w>iast": 6516,
      "</w>iction": 6517,
      "</w>cu": 6518,
      "</w>cte": 6519,
      "</w>olet": 6520,
      "</w>nel": 6521,
      "</w>ault": 6522,
      "</w>vu": 6523,
      "</w>çait": 6524,
      "</w>ari": 6525,
      "quit": 6526,
      "</w>alt": 6527,
      "</w>rière": 6528,
      "</w>seau": 6529,
      "sake": 6530,
      "frag": 6531,
      "handker": 6532,
      "voyais": 6533,
      "menaç": 6534,
      "curtain": 6535,
      "évanou": 6536,
      "montait": 6537,
      "earnest": 6538,
      "convinced": 6539,
      "furious": 6540,
      "directly": 6541,
      "répéta": 6542,
      "gouvern": 6543,
      "unfortunate": 6544,
      "handkerchief": 6545,
      "vest": 6546,
      "vulg": 6547,
      "çà": 6548,
      "</w>line": 6549,
      "share": 6550,
      "</w>agon": 6551,
      "</w>idents": 6552,
      "suit": 6553,
      "clai": 6554,
      "repres": 6555,
      "boh": 6556,
      "</w>appoint": 6557,
      "knowledge": 6558,
      "milit": 6559,
      "profession": 6560,
      "désert": 6561,
      "premières": 6562,
      "brick": 6563,
      "proport": 6564,
      "curé": 6565,
      "figures": 6566,
      "keeping": 6567,
      "hurry": 6568,
      "gallop": 6569,
      "carrying": 6570,
      "meilleur": 6571,
      "exécut": 6572,
      "bale": 6573,
      "dign": 6574,
      "</w>uments": 6575,
      "</w>right": 6576,
      "</w>rol": 6577,
      "forc": 6578,
      "plong": 6579,
      "ceased": 6580,
      "partit": 6581,
      "flor": 6582,
      "tempér": 6583,
      "secr": 6584,
      "belcher": 6585,
      "familiar": 6586,
      "addressed": 6587,
      "reconnut": 6588,
      "</w>bourn": 6589,
      "quantité": 6590,
      "</w>blesse": 6591,
      "moyens": 6592,
      "playing": 6593,
      "mouch": 6594,
      "bande": 6595,
      "ambition": 6596,
      "asseoir": 6597,
      "finger": 6598,
      "mountains": 6599,
      "hypoc": 6600,
      "tongue": 6601,
      "dangere": 6602,
      "bree": 6603,
      "</w>iot": 6604,
      "</w>elier": 6605,
      "desired": 6606,
      "withd": 6607,
      "mode": 6608,
      "trust": 6609,
      "exch": 6610,
      "brav": 6611,
      "</w>issent": 6612,
      "longbourn": 6613,
      "span": 6614,
      "remit": 6615,
      "incap": 6616,
      "pharm": 6617,
      "semblable": 6618,
      "level": 6619,
      "fury": 6620,
      "pipe": 6621,
      "dangerous": 6622,
      "catch": 6623,
      "communic": 6624,
      "monstr": 6625,
      "equal": 6626,
      "fauteuil": 6627,
      "doigt": 6628,
      "destroy": 6629,
      "afternoon": 6630,
      "cure": 6631,
      "eminence": 6632,
      "hâte": 6633,
      "oak": 6634,
      "upper": 6635,
      "</w>dom": 6636,
      "</w>vi": 6637,
      "</w>gar": 6638,
      "</w>omet": 6639,
      "</w>quence": 6640,
      "reve": 6641,
      "</w>sever": 6642,
      "atlant": 6643,
      "</w>ctive": 6644,
      "</w>ctures": 6645,
      "</w>illons": 6646,
      "allé": 6647,
      "conti": 6648,
      "conserv": 6649,
      "</w>adeau": 6650,
      "riant": 6651,
      "salut": 6652,
      "clef": 6653,
      "mémoire": 6654,
      "marchand": 6655,
      "obligé": 6656,
      "breaking": 6657,
      "dévou": 6658,
      "pénible": 6659,
      "details": 6660,
      "costume": 6661,
      "fields": 6662,
      "craindre": 6663,
      "creek": 6664,
      "axel": 6665,
      "félic": 6666,
      "aie": 6667,
      "cout": 6668,
      "</w>itution": 6669,
      "</w>quée": 6670,
      "</w>imul": 6671,
      "liver": 6672,
      "mare": 6673,
      "retrait": 6674,
      "remor": 6675,
      "misery": 6676,
      "doubtless": 6677,
      "examined": 6678,
      "montra": 6679,
      "exclam": 6680,
      "commander": 6681,
      "sauvage": 6682,
      "sprang": 6683,
      "laughter": 6684,
      "lieut": 6685,
      "principal": 6686,
      "writing": 6687,
      "nerv": 6688,
      "neige": 6689,
      "appré": 6690,
      "</w>lime": 6691,
      "</w>érité": 6692,
      "teach": 6693,
      "seriously": 6694,
      "bonté": 6695,
      "</w>rows": 6696,
      "curieux": 6697,
      "évêque": 6698,
      "compren": 6699,
      "domin": 6700,
      "reader": 6701,
      "rêve": 6702,
      "cheminées": 6703,
      "repeat": 6704,
      "avouer": 6705,
      "vêtements": 6706,
      "lâ": 6707,
      "puits": 6708,
      "</w>bro": 6709,
      "</w>enu": 6710,
      "</w>chaient": 6711,
      "design": 6712,
      "</w>aissaient": 6713,
      "merely": 6714,
      "hollow": 6715,
      "sublime": 6716,
      "naturel": 6717,
      "built": 6718,
      "tira": 6719,
      "evil": 6720,
      "précéd": 6721,
      "calling": 6722,
      "damp": 6723,
      "drive": 6724,
      "protect": 6725,
      "blessé": 6726,
      "domestiques": 6727,
      "scrup": 6728,
      "fumée": 6729,
      "disturbed": 6730,
      "formidable": 6731,
      "staircase": 6732,
      "cy": 6733,
      "sisters": 6734,
      "chin": 6735,
      "shame": 6736,
      "shoes": 6737,
      "</w>ider": 6738,
      "soil": 6739,
      "aronn": 6740,
      "proceed": 6741,
      "retard": 6742,
      "flot": 6743,
      "hunger": 6744,
      "raisonn": 6745,
      "suivait": 6746,
      "évident": 6747,
      "fault": 6748,
      "slept": 6749,
      "superior": 6750,
      "personnage": 6751,
      "contempt": 6752,
      "philosoph": 6753,
      "discussion": 6754,
      "execution": 6755,
      "épouvant": 6756,
      "paix": 6757,
      "cacambo": 6758,
      "olivier": 6759,
      "aronnax": 6760,
      "cant": 6761,
      "eurent": 6762,
      "</w>nés": 6763,
      "</w>ysi": 6764,
      "</w>attered": 6765,
      "</w>utions": 6766,
      "shed": 6767,
      "</w>key": 6768,
      "manoe": 6769,
      "</w>venu": 6770,
      "</w>opin": 6771,
      "assise": 6772,
      "discours": 6773,
      "suffering": 6774,
      "displ": 6775,
      "</w>azed": 6776,
      "ventured": 6777,
      "tombe": 6778,
      "garn": 6779,
      "revenait": 6780,
      "perdue": 6781,
      "satisfait": 6782,
      "possessed": 6783,
      "agitation": 6784,
      "ennui": 6785,
      "belonged": 6786,
      "déchir": 6787,
      "fate": 6788,
      "pian": 6789,
      "vont": 6790,
      "véc": 6791,
      "ward": 6792,
      "wils": 6793,
      "</w>aï": 6794,
      "</w>isp": 6795,
      "</w>urant": 6796,
      "</w>otes": 6797,
      "chal": 6798,
      "étal": 6799,
      "étroit": 6800,
      "wear": 6801,
      "madam": 6802,
      "impert": 6803,
      "</w>assé": 6804,
      "everybody": 6805,
      "informed": 6806,
      "key": 6807,
      "behav": 6808,
      "swift": 6809,
      "inquir": 6810,
      "mystérie": 6811,
      "summer": 6812,
      "stayed": 6813,
      "ignorant": 6814,
      "cloak": 6815,
      "souvenirs": 6816,
      "écoutait": 6817,
      "governor": 6818,
      "</w>iest": 6819,
      "</w>bér": 6820,
      "</w>erte": 6821,
      "</w>iteur": 6822,
      "flung": 6823,
      "fortnight": 6824,
      "matters": 6825,
      "répondait": 6826,
      "épuis": 6827,
      "supporter": 6828,
      "pensez": 6829,
      "</w>ification": 6830,
      "await": 6831,
      "voices": 6832,
      "frequently": 6833,
      "grown": 6834,
      "separated": 6835,
      "commencement": 6836,
      "accompanied": 6837,
      "document": 6838,
      "manteau": 6839,
      "represent": 6840,
      "wilson": 6841,
      "cig": 6842,
      "ming": 6843,
      "vif": 6844,
      "</w>ew": 6845,
      "</w>arre": 6846,
      "ancient": 6847,
      "frém": 6848,
      "aloud": 6849,
      "dozen": 6850,
      "appl": 6851,
      "intense": 6852,
      "partis": 6853,
      "</w>ancol": 6854,
      "doul": 6855,
      "charbon": 6856,
      "entrance": 6857,
      "barry": 6858,
      "naturellement": 6859,
      "annoy": 6860,
      "explan": 6861,
      "permit": 6862,
      "generally": 6863,
      "descendit": 6864,
      "dirig": 6865,
      "edie": 6866,
      "profondeur": 6867,
      "affirm": 6868,
      "enthus": 6869,
      "mélancol": 6870,
      "faudrait": 6871,
      "sherlock": 6872,
      "dwe": 6873,
      "hence": 6874,
      "loth": 6875,
      "</w>bé": 6876,
      "</w>èg": 6877,
      "</w>aming": 6878,
      "tress": 6879,
      "stick": 6880,
      "</w>icked": 6881,
      "space": 6882,
      "working": 6883,
      "supply": 6884,
      "rappelle": 6885,
      "rendu": 6886,
      "rendait": 6887,
      "souffle": 6888,
      "soldat": 6889,
      "buried": 6890,
      "deeply": 6891,
      "complètement": 6892,
      "creus": 6893,
      "obstacle": 6894,
      "cresc": 6895,
      "bah": 6896,
      "fuite": 6897,
      "</w>reuse": 6898,
      "dedans": 6899,
      "</w>agers": 6900,
      "intended": 6901,
      "charg": 6902,
      "cape": 6903,
      "everywhere": 6904,
      "interior": 6905,
      "refuse": 6906,
      "dépos": 6907,
      "monta": 6908,
      "joues": 6909,
      "surely": 6910,
      "learn": 6911,
      "marchesa": 6912,
      "physionomie": 6913,
      "emer": 6914,
      "stern": 6915,
      "</w>lés": 6916,
      "</w>urst": 6917,
      "conde": 6918,
      "grac": 6919,
      "abond": 6920,
      "classe": 6921,
      "agent": 6922,
      "perform": 6923,
      "</w>issante": 6924,
      "</w>umé": 6925,
      "objets": 6926,
      "someone": 6927,
      "</w>moins": 6928,
      "haste": 6929,
      "drap": 6930,
      "attir": 6931,
      "vision": 6932,
      "century": 6933,
      "clever": 6934,
      "égard": 6935,
      "picture": 6936,
      "posséd": 6937,
      "played": 6938,
      "ordinary": 6939,
      "private": 6940,
      "hidden": 6941,
      "acquaintance": 6942,
      "elder": 6943,
      "crew": 6944,
      "lignes": 6945,
      "tels": 6946,
      "wais": 6947,
      "</w>anmoins": 6948,
      "</w>ommo": 6949,
      "</w>stand": 6950,
      "prote": 6951,
      "détermin": 6952,
      "demie": 6953,
      "otherwise": 6954,
      "species": 6955,
      "dropped": 6956,
      "</w>otted": 6957,
      "vivant": 6958,
      "explos": 6959,
      "souffrir": 6960,
      "apparence": 6961,
      "succès": 6962,
      "arrêté": 6963,
      "néanmoins": 6964,
      "rayons": 6965,
      "fastened": 6966,
      "bureau": 6967,
      "louvre": 6968,
      "fiè": 6969,
      "gilett": 6970,
      "gates": 6971,
      "hed": 6972,
      "poudre": 6973,
      "</w>iar": 6974,
      "</w>with": 6975,
      "chute": 6976,
      "hers": 6977,
      "</w>acé": 6978,
      "projets": 6979,
      "autor": 6980,
      "impl": 6981,
      "remords": 6982,
      "knife": 6983,
      "fortunately": 6984,
      "pension": 6985,
      "besogne": 6986,
      "famil": 6987,
      "faç": 6988,
      "solid": 6989,
      "chevalier": 6990,
      "failed": 6991,
      "sinon": 6992,
      "résolution": 6993,
      "stupe": 6994,
      "singulier": 6995,
      "faithful": 6996,
      "royal": 6997,
      "hanging": 6998,
      "négrel": 6999,
      "juger": 7000,
      "grosses": 7001,
      "exactement": 7002,
      "bun": 7003,
      "bore": 7004,
      "dent": 7005,
      "gulf": 7006,
      "names": 7007,
      "xi": 7008,
      "toile": 7009,
      "aven": 7010,
      "peux": 7011,
      "</w>ueuse": 7012,
      "</w>onder": 7013,
      "appoint": 7014,
      "goat": 7015,
      "quels": 7016,
      "</w>umn": 7017,
      "block": 7018,
      "ferr": 7019,
      "ways": 7020,
      "pensais": 7021,
      "appears": 7022,
      "granit": 7023,
      "rentra": 7024,
      "moust": 7025,
      "hastened": 7026,
      "ennemi": 7027,
      "prisonnier": 7028,
      "terrain": 7029,
      "daily": 7030,
      "incapable": 7031,
      "barrymore": 7032,
      "giletti": 7033,
      "?…": 7034,
      "bos": 7035,
      "biz": 7036,
      "bib": 7037,
      "nerve": 7038,
      "rad": 7039,
      "</w>rite": 7040,
      "</w>enois": 7041,
      "</w>ensible": 7042,
      "surpr": 7043,
      "libr": 7044,
      "abrupt": 7045,
      "poissons": 7046,
      "</w>akes": 7047,
      "blows": 7048,
      "regarde": 7049,
      "glace": 7050,
      "watching": 7051,
      "insist": 7052,
      "promis": 7053,
      "raisons": 7054,
      "instantly": 7055,
      "drove": 7056,
      "rendit": 7057,
      "embarcation": 7058,
      "obstin": 7059,
      "héros": 7060,
      "tower": 7061,
      "experien": 7062,
      "</w>oureuse": 7063,
      "enthous": 7064,
      "struggle": 7065,
      "innocent": 7066,
      "inhabit": 7067,
      "pave": 7068,
      "pages": 7069,
      "paint": 7070,
      "pick": 7071,
      "</w>now": 7072,
      "</w>naient": 7073,
      "</w>ta": 7074,
      "deaf": 7075,
      "</w>acer": 7076,
      "obtain": 7077,
      "diana": 7078,
      "commer": 7079,
      "préte": 7080,
      "ferai": 7081,
      "mason": 7082,
      "entier": 7083,
      "happen": 7084,
      "nearer": 7085,
      "constantly": 7086,
      "croisenois": 7087,
      "mysterious": 7088,
      "clearly": 7089,
      "puissance": 7090,
      "hopes": 7091,
      "consequence": 7092,
      "clouds": 7093,
      "agreeable": 7094,
      "fetch": 7095,
      "linen": 7096,
      "</w>arse": 7097,
      "jeun": 7098,
      "meu": 7099,
      "soins": 7100,
      "surv": 7101,
      "proceeded": 7102,
      "managed": 7103,
      "compass": 7104,
      "</w>ensions": 7105,
      "portant": 7106,
      "confusion": 7107,
      "tourment": 7108,
      "propres": 7109,
      "reviend": 7110,
      "provin": 7111,
      "abandonner": 7112,
      "développ": 7113,
      "bringing": 7114,
      "envoyé": 7115,
      "chimneys": 7116,
      "disturb": 7117,
      "lucas": 7118,
      "métier": 7119,
      "toilette": 7120,
      "misfortune": 7121,
      "fraîche": 7122,
      "billet": 7123,
      "dig": 7124,
      "</w>oci": 7125,
      "</w>val": 7126,
      "</w>inière": 7127,
      "lab": 7128,
      "reb": 7129,
      "</w>ams": 7130,
      "</w>like": 7131,
      "retent": 7132,
      "physi": 7133,
      "vouloir": 7134,
      "hearts": 7135,
      "beheld": 7136,
      "islands": 7137,
      "revenu": 7138,
      "ajouter": 7139,
      "soupç": 7140,
      "rival": 7141,
      "régul": 7142,
      "révél": 7143,
      "succeed": 7144,
      "slightly": 7145,
      "guns": 7146,
      "virtue": 7147,
      "</w>alda": 7148,
      "cadavre": 7149,
      "cél": 7150,
      "éper": 7151,
      "</w>iée": 7152,
      "</w>oit": 7153,
      "toit": 7154,
      "queue": 7155,
      "dull": 7156,
      "fruit": 7157,
      "dém": 7158,
      "apporter": 7159,
      "sortait": 7160,
      "rivers": 7161,
      "semblables": 7162,
      "volume": 7163,
      "pierr": 7164,
      "provo": 7165,
      "circul": 7166,
      "doesn": 7167,
      "aware": 7168,
      "demeur": 7169,
      "spirits": 7170,
      "</w>bbing": 7171,
      "widow": 7172,
      "pêche": 7173,
      "plunged": 7174,
      "bohém": 7175,
      "sage": 7176,
      "york": 7177,
      "îlot": 7178,
      "</w>pet": 7179,
      "</w>ûte": 7180,
      "reckon": 7181,
      "desse": 7182,
      "</w>acity": 7183,
      "</w>inture": 7184,
      "worked": 7185,
      "</w>étaire": 7186,
      "gently": 7187,
      "relief": 7188,
      "actions": 7189,
      "défaut": 7190,
      "voyageurs": 7191,
      "embarras": 7192,
      "songeait": 7193,
      "various": 7194,
      "sansever": 7195,
      "flowers": 7196,
      "clerk": 7197,
      "approaching": 7198,
      "réflexions": 7199,
      "vapeur": 7200,
      "pharmac": 7201,
      "sanseverina": 7202,
      ".)": 7203,
      "ack": 7204,
      "rum": 7205,
      "</w>rane": 7206,
      "</w>uel": 7207,
      "</w>hod": 7208,
      "</w>lez": 7209,
      "</w>elop": 7210,
      "étro": 7211,
      "assi": 7212,
      "moll": 7213,
      "stairs": 7214,
      "alarm": 7215,
      "nove": 7216,
      "poet": 7217,
      "willing": 7218,
      "devais": 7219,
      "remind": 7220,
      "souliers": 7221,
      "confused": 7222,
      "marchese": 7223,
      "palace": 7224,
      "pièces": 7225,
      "declared": 7226,
      "mentioned": 7227,
      "gathered": 7228,
      "chagrin": 7229,
      "lothian": 7230,
      ",»": 7231,
      "aî": 7232,
      "bol": 7233,
      "léon": 7234,
      "mise": 7235,
      "pack": 7236,
      "tables": 7237,
      "</w>uc": 7238,
      "</w>xte": 7239,
      "</w>onie": 7240,
      "</w>arily": 7241,
      "</w>ussi": 7242,
      "whence": 7243,
      "trous": 7244,
      "weary": 7245,
      "caress": 7246,
      "retenir": 7247,
      "consul": 7248,
      "finir": 7249,
      "joined": 7250,
      "invitation": 7251,
      "travel": 7252,
      "travaux": 7253,
      "montrait": 7254,
      "espérance": 7255,
      "sérieusement": 7256,
      "dormir": 7257,
      "governess": 7258,
      "avança": 7259,
      "résultat": 7260,
      "lieutenant": 7261,
      "display": 7262,
      "jeunesse": 7263,
      "dil": 7264,
      "</w>aff": 7265,
      "</w>inrent": 7266,
      "</w>orme": 7267,
      "aside": 7268,
      "déd": 7269,
      "récl": 7270,
      "whenever": 7271,
      "deviner": 7272,
      "retired": 7273,
      "cheer": 7274,
      "accout": 7275,
      "offrir": 7276,
      "strang": 7277,
      "posit": 7278,
      "affairs": 7279,
      "veuve": 7280,
      "guess": 7281,
      "pensai": 7282,
      "connaissez": 7283,
      "announced": 7284,
      "admit": 7285,
      "excited": 7286,
      "oblige": 7287,
      "exceed": 7288,
      "mystery": 7289,
      "commandant": 7290,
      "gallant": 7291,
      "hatred": 7292,
      "découverte": 7293,
      "absurd": 7294,
      "auberge": 7295,
      "waist": 7296,
      "acknow": 7297,
      "fête": 7298,
      "mix": 7299,
      "ox": 7300,
      "taill": 7301,
      "</w>rées": 7302,
      "</w>water": 7303,
      "</w>aries": 7304,
      "</w>enth": 7305,
      "</w>urg": 7306,
      "unes": 7307,
      "seine": 7308,
      "beach": 7309,
      "</w>apt": 7310,
      "pear": 7311,
      "marine": 7312,
      "serve": 7313,
      "esmer": 7314,
      "portée": 7315,
      "image": 7316,
      "coron": 7317,
      "expéri": 7318,
      "begun": 7319,
      "couche": 7320,
      "savage": 7321,
      "</w>izing": 7322,
      "renf": 7323,
      "tombait": 7324,
      "ayez": 7325,
      "probablement": 7326,
      "entering": 7327,
      "nécessité": 7328,
      "climb": 7329,
      "tabor": 7330,
      "false": 7331,
      "événement": 7332,
      "lantern": 7333,
      ").": 7334,
      "cup": 7335,
      "».": 7336,
      "</w>uced": 7337,
      "</w>ça": 7338,
      "thor": 7339,
      "comtesse": 7340,
      "conqu": 7341,
      "</w>illait": 7342,
      "</w>oose": 7343,
      "prove": 7344,
      "sommet": 7345,
      "club": 7346,
      "</w>intes": 7347,
      "comptait": 7348,
      "enferm": 7349,
      "works": 7350,
      "sortes": 7351,
      "colour": 7352,
      "join": 7353,
      "substance": 7354,
      "souriant": 7355,
      "redout": 7356,
      "ouvrage": 7357,
      "solemn": 7358,
      "masses": 7359,
      "mounted": 7360,
      "conclusion": 7361,
      "study": 7362,
      "mistake": 7363,
      "circonstance": 7364,
      "barely": 7365,
      "épouser": 7366,
      "degrés": 7367,
      "retraite": 7368,
      "ade": 7369,
      "rag": 7370,
      "sœur": 7371,
      "</w>mort": 7372,
      "</w>ouch": 7373,
      "</w>ourde": 7374,
      "destr": 7375,
      "abatt": 7376,
      "apprit": 7377,
      "foyer": 7378,
      "attached": 7379,
      "refer": 7380,
      "éviter": 7381,
      "nuages": 7382,
      "</w>issements": 7383,
      "particulier": 7384,
      "painful": 7385,
      "employed": 7386,
      "victim": 7387,
      "</w>conque": 7388,
      "retirer": 7389,
      "volontiers": 7390,
      "logis": 7391,
      "fièvre": 7392,
      "esmeralda": 7393,
      "baz": 7394,
      "moul": 7395,
      "séd": 7396,
      "tint": 7397,
      "</w>ôme": 7398,
      "qualité": 7399,
      "lament": 7400,
      "enl": 7401,
      "</w>ading": 7402,
      "notes": 7403,
      "alar": 7404,
      "</w>ounce": 7405,
      "</w>lies": 7406,
      "</w>érait": 7407,
      "telles": 7408,
      "bod": 7409,
      "flight": 7410,
      "commission": 7411,
      "affreux": 7412,
      "empar": 7413,
      "indisp": 7414,
      "insc": 7415,
      "rede": 7416,
      "ouvrait": 7417,
      "bonnemort": 7418,
      "swall": 7419,
      "comprends": 7420,
      "séjour": 7421,
      "settlement": 7422,
      "pressure": 7423,
      "naturally": 7424,
      "supérieure": 7425,
      "pacific": 7426,
      "delicate": 7427,
      "amérique": 7428,
      "dangers": 7429,
      "lent": 7430,
      "loss": 7431,
      "nort": 7432,
      "tig": 7433,
      "</w>jou": 7434,
      "</w>iting": 7435,
      "leon": 7436,
      "season": 7437,
      "</w>ilar": 7438,
      "étage": 7439,
      "plaît": 7440,
      "</w>urel": 7441,
      "liber": 7442,
      "boî": 7443,
      "preuve": 7444,
      "effor": 7445,
      "</w>oisse": 7446,
      "morts": 7447,
      "trib": 7448,
      "</w>ception": 7449,
      "princess": 7450,
      "quitta": 7451,
      "flew": 7452,
      "</w>ruption": 7453,
      "brilliant": 7454,
      "foolish": 7455,
      "pavé": 7456,
      "cheeks": 7457,
      "witness": 7458,
      "grégoire": 7459,
      "10": 7460,
      "sank": 7461,
      "tit": 7462,
      "</w>will": 7463,
      "</w>bit": 7464,
      "frame": 7465,
      "démon": 7466,
      "brouill": 7467,
      "tea": 7468,
      "lock": 7469,
      "boys": 7470,
      "remains": 7471,
      "persons": 7472,
      "</w>fection": 7473,
      "vex": 7474,
      "insp": 7475,
      "drop": 7476,
      "naturelle": 7477,
      "fully": 7478,
      "elb": 7479,
      "wishes": 7480,
      "vertu": 7481,
      "modest": 7482,
      "gouverneur": 7483,
      "eleg": 7484,
      "ennemis": 7485,
      "fidèle": 7486,
      "sévère": 7487,
      "abominable": 7488,
      "drowned": 7489,
      "credit": 7490,
      "jure": 7491,
      "jalous": 7492,
      "mast": 7493,
      "paces": 7494,
      "</w>cs": 7495,
      "</w>asc": 7496,
      "convent": 7497,
      "congé": 7498,
      "avanc": 7499,
      "allai": 7500,
      "</w>oop": 7501,
      "fears": 7502,
      "adèle": 7503,
      "écol": 7504,
      "obtained": 7505,
      "devoted": 7506,
      "terri": 7507,
      "regardai": 7508,
      "match": 7509,
      "pup": 7510,
      "insult": 7511,
      "prompt": 7512,
      "relie": 7513,
      "signif": 7514,
      "constr": 7515,
      "remarqua": 7516,
      "highly": 7517,
      "officers": 7518,
      "rays": 7519,
      "mouvements": 7520,
      "audience": 7521,
      "</w>ffee": 7522,
      "abandoned": 7523,
      "bibli": 7524,
      "?...": 7525,
      "bowed": 7526,
      "ep": 7527,
      "foul": 7528,
      "fureur": 7529,
      "mord": 7530,
      "tâ": 7531,
      "tes": 7532,
      "tâche": 7533,
      "</w>bber": 7534,
      "</w>llis": 7535,
      "bearing": 7536,
      "surveill": 7537,
      "disappoint": 7538,
      "brise": 7539,
      "</w>astro": 7540,
      "flood": 7541,
      "viole": 7542,
      "continuer": 7543,
      "espagn": 7544,
      "saisit": 7545,
      "advance": 7546,
      "permis": 7547,
      "meaning": 7548,
      "produit": 7549,
      "ancienne": 7550,
      "</w>bran": 7551,
      "magistr": 7552,
      "précipit": 7553,
      "robin": 7554,
      "aider": 7555,
      "nourrit": 7556,
      "reflected": 7557,
      "joyeux": 7558,
      "gendarmes": 7559,
      "bored": 7560,
      "fuir": 7561,
      "gh": 7562,
      "lys": 7563,
      "net": 7564,
      "pais": 7565,
      "wel": 7566,
      "</w>oused": 7567,
      "saf": 7568,
      "mob": 7569,
      "rolled": 7570,
      "</w>érée": 7571,
      "loint": 7572,
      "criait": 7573,
      "scul": 7574,
      "emporter": 7575,
      "method": 7576,
      "chambres": 7577,
      "harmon": 7578,
      "arrivés": 7579,
      "landl": 7580,
      "conviction": 7581,
      "reconnu": 7582,
      "expressed": 7583,
      "forgive": 7584,
      "experience": 7585,
      "possibly": 7586,
      "maladie": 7587,
      "test": 7588,
      "etes": 7589,
      "plomb": 7590,
      "</w>ieres": 7591,
      "brun": 7592,
      "coffee": 7593,
      "</w>ertain": 7594,
      "canon": 7595,
      "accour": 7596,
      "removed": 7597,
      "expéd": 7598,
      "confir": 7599,
      "premiere": 7600,
      "armée": 7601,
      "farm": 7602,
      "marché": 7603,
      "gives": 7604,
      "voisine": 7605,
      "</w>bourg": 7606,
      "furnished": 7607,
      "steamer": 7608,
      "événements": 7609,
      "gloomy": 7610,
      "inexplic": 7611,
      "remorse": 7612,
      "bab": 7613,
      "fled": 7614,
      "fired": 7615,
      "tén": 7616,
      "têtes": 7617,
      "</w>éter": 7618,
      "</w>fall": 7619,
      "</w>ènes": 7620,
      "quad": 7621,
      "</w>ottes": 7622,
      "unex": 7623,
      "démar": 7624,
      "</w>alles": 7625,
      "clopin": 7626,
      "loi": 7627,
      "adventure": 7628,
      "</w>onna": 7629,
      "dict": 7630,
      "crier": 7631,
      "worst": 7632,
      "sortie": 7633,
      "couch": 7634,
      "trembled": 7635,
      "riches": 7636,
      "larges": 7637,
      "boule": 7638,
      "bourse": 7639,
      "sangl": 7640,
      "sunday": 7641,
      "poussait": 7642,
      "catastro": 7643,
      "meantime": 7644,
      "faudra": 7645,
      "deserted": 7646,
      "</w>brock": 7647,
      "pavement": 7648,
      "**": 7649,
      "cuir": 7650,
      "date": 7651,
      "gained": 7652,
      "nage": 7653,
      "ori": 7654,
      "sed": 7655,
      "</w>tte": 7656,
      "</w>enbrock": 7657,
      "</w>irt": 7658,
      "quelles": 7659,
      "desper": 7660,
      "dure": 7661,
      "weap": 7662,
      "pecul": 7663,
      "</w>autions": 7664,
      "commis": 7665,
      "exped": 7666,
      "publi": 7667,
      "harm": 7668,
      "rouen": 7669,
      "hautes": 7670,
      "sourd": 7671,
      "nouveaux": 7672,
      "vivait": 7673,
      "recovered": 7674,
      "woods": 7675,
      "castle": 7676,
      "longueur": 7677,
      "paquet": 7678,
      "lifted": 7679,
      "uniform": 7680,
      "michaud": 7681,
      "bass": 7682,
      "mun": 7683,
      "</w>uce": 7684,
      "rejet": 7685,
      "</w>road": 7686,
      "jew": 7687,
      "</w>ender": 7688,
      "stiff": 7689,
      "william": 7690,
      "toucher": 7691,
      "recl": 7692,
      "incon": 7693,
      "bouill": 7694,
      "value": 7695,
      "quarrel": 7696,
      "procur": 7697,
      "joli": 7698,
      "considérable": 7699,
      "politique": 7700,
      "throat": 7701,
      "assurance": 7702,
      "chemise": 7703,
      "picked": 7704,
      "redoubl": 7705,
      "</w>enzi": 7706,
      "hospit": 7707,
      "égyptienne": 7708,
      "applaud": 7709,
      "crescenzi": 7710,
      "peculiar": 7711,
      "bath": 7712,
      "mienne": 7713,
      "nether": 7714,
      "odeur": 7715,
      "torn": 7716,
      "yon": 7717,
      "</w>enard": 7718,
      "</w>lection": 7719,
      "</w>eds": 7720,
      "seurel": 7721,
      "</w>roi": 7722,
      "stif": 7723,
      "</w>ults": 7724,
      "mah": 7725,
      "</w>tra": 7726,
      "brul": 7727,
      "boots": 7728,
      "</w>ignant": 7729,
      "douter": 7730,
      "courait": 7731,
      "préoccup": 7732,
      "visiter": 7733,
      "couteau": 7734,
      "renvoy": 7735,
      "sourc": 7736,
      "élé": 7737,
      "jetant": 7738,
      "lowered": 7739,
      "remarqué": 7740,
      "example": 7741,
      "fusse": 7742,
      "utile": 7743,
      "amongst": 7744,
      "kindness": 7745,
      "paysan": 7746,
      "fellows": 7747,
      "</w>heureux": 7748,
      "plainly": 7749,
      "monster": 7750,
      "valeur": 7751,
      "napole": 7752,
      "compliment": 7753,
      "enemies": 7754,
      "proportion": 7755,
      "destruction": 7756,
      "cult": 7757,
      "hig": 7758,
      "mand": 7759,
      "named": 7760,
      "sain": 7761,
      "sienne": 7762,
      "</w>vely": 7763,
      "</w>erver": 7764,
      "</w>isely": 7765,
      "seuil": 7766,
      "chèvre": 7767,
      "</w>geon": 7768,
      "proof": 7769,
      "size": 7770,
      "brain": 7771,
      "sport": 7772,
      "courte": 7773,
      "related": 7774,
      "renew": 7775,
      "ruined": 7776,
      "provided": 7777,
      "</w>anchement": 7778,
      "fleuve": 7779,
      "disparut": 7780,
      "observations": 7781,
      "directed": 7782,
      "troubled": 7783,
      "flamme": 7784,
      "stuff": 7785,
      "napol": 7786,
      "camarade": 7787,
      "tristesse": 7788,
      "découvert": 7789,
      "dissimul": 7790,
      "princesse": 7791,
      "enthousias": 7792,
      "30": 7793,
      "ratt": 7794,
      "</w>cast": 7795,
      "</w>onte": 7796,
      "</w>isait": 7797,
      "</w>usions": 7798,
      "shade": 7799,
      "sachant": 7800,
      "color": 7801,
      "mett": 7802,
      "proposed": 7803,
      "attendais": 7804,
      "feuilles": 7805,
      "rêver": 7806,
      "accordingly": 7807,
      "parfaite": 7808,
      "obscure": 7809,
      "acheter": 7810,
      "déclara": 7811,
      "information": 7812,
      "consequently": 7813,
      "morceaux": 7814,
      "débarrass": 7815,
      "piano": 7816,
      "***": 7817,
      "arose": 7818,
      "bai": 7819,
      "goth": 7820,
      "germ": 7821,
      "lud": 7822,
      "maud": 7823,
      "poul": 7824,
      "</w>ok": 7825,
      "</w>uée": 7826,
      "theat": 7827,
      "</w>inking": 7828,
      "</w>isa": 7829,
      "</w>arine": 7830,
      "</w>ata": 7831,
      "</w>asons": 7832,
      "</w>ashing": 7833,
      "lecture": 7834,
      "shone": 7835,
      "</w>iding": 7836,
      "plaine": 7837,
      "plume": 7838,
      "</w>osing": 7839,
      "pourra": 7840,
      "</w>gellis": 7841,
      "seeking": 7842,
      "repart": 7843,
      "objection": 7844,
      "regagn": 7845,
      "drunk": 7846,
      "worn": 7847,
      "assumed": 7848,
      "minuit": 7849,
      "sorts": 7850,
      "tregellis": 7851,
      "dernières": 7852,
      "valait": 7853,
      "présenter": 7854,
      "setting": 7855,
      "noires": 7856,
      "cutting": 7857,
      "douceur": 7858,
      "difficulté": 7859,
      "rapidité": 7860,
      "forehead": 7861,
      "southern": 7862,
      "formerly": 7863,
      "</w>asped": 7864,
      "prevented": 7865,
      "rejoindre": 7866,
      "inclination": 7867,
      "dragged": 7868,
      "franklin": 7869,
      "danse": 7870,
      "bouteille": 7871,
      "experienced": 7872,
      "thorough": 7873,
      "bazin": 7874,
      "netherfield": 7875,
      "boul": 7876,
      "</w>rions": 7877,
      "</w>ogn": 7878,
      "</w>erne": 7879,
      "reasons": 7880,
      "track": 7881,
      "bruy": 7882,
      "</w>uiss": 7883,
      "serons": 7884,
      "imper": 7885,
      "remis": 7886,
      "</w>udi": 7887,
      "</w>ugu": 7888,
      "restr": 7889,
      "distrib": 7890,
      "takes": 7891,
      "absent": 7892,
      "venture": 7893,
      "circle": 7894,
      "illum": 7895,
      "occupé": 7896,
      "necessity": 7897,
      "frapper": 7898,
      "request": 7899,
      "pirates": 7900,
      "mousqueton": 7901,
      "bird": 7902,
      "champion": 7903,
      "kissed": 7904,
      "pacifique": 7905,
      "deliver": 7906,
      "jaune": 7907,
      "building": 7908,
      "prétexte": 7909,
      "adele": 7910,
      "sculpt": 7911,
      "coo": 7912,
      "sie": 7913,
      "vier": 7914,
      "</w>rale": 7915,
      "</w>ctement": 7916,
      "</w>gund": 7917,
      "</w>atives": 7918,
      "tomor": 7919,
      "</w>oman": 7920,
      "heur": 7921,
      "chaî": 7922,
      "shape": 7923,
      "plaç": 7924,
      "</w>illée": 7925,
      "sheet": 7926,
      "wealth": 7927,
      "disais": 7928,
      "cover": 7929,
      "seront": 7930,
      "crushed": 7931,
      "contained": 7932,
      "remonter": 7933,
      "</w>eping": 7934,
      "masters": 7935,
      "transform": 7936,
      "bourg": 7937,
      "violently": 7938,
      "devenue": 7939,
      "needed": 7940,
      "sleeping": 7941,
      "ridicul": 7942,
      "naples": 7943,
      "maigre": 7944,
      "throwing": 7945,
      "conséquent": 7946,
      "truly": 7947,
      "america": 7948,
      "orient": 7949,
      "tomorrow": 7950,
      "20": 7951,
      "hong": 7952,
      "huss": 7953,
      "lheureux": 7954,
      "mout": 7955,
      "mount": 7956,
      "page": 7957,
      "</w>inging": 7958,
      "bew": 7959,
      "sho": 7960,
      "</w>vere": 7961,
      "friss": 7962,
      "</w>aper": 7963,
      "grain": 7964,
      "libér": 7965,
      "bye": 7966,
      "abat": 7967,
      "crimes": 7968,
      "matel": 7969,
      "veget": 7970,
      "donnant": 7971,
      "volu": 7972,
      "province": 7973,
      "tendresse": 7974,
      "hurt": 7975,
      "showing": 7976,
      "ignorance": 7977,
      "plantation": 7978,
      "extrêmement": 7979,
      "sincère": 7980,
      "</w>royable": 7981,
      "réfléchir": 7982,
      "néglig": 7983,
      "trompe": 7984,
      "meurt": 7985,
      "jealousy": 7986,
      "fréquent": 7987,
      "commissaire": 7988,
      "excursion": 7989,
      "nervous": 7990,
      "yonville": 7991,
      "jap": 7992,
      "lourde": 7993,
      "tar": 7994,
      "tun": 7995,
      "vall": 7996,
      "</w>fl": 7997,
      "</w>iour": 7998,
      "</w>umb": 7999,
      "</w>erci": 8000,
      "</w>reaux": 8001,
      "</w>chan": 8002,
      "ships": 8003,
      "store": 8004,
      "archev": 8005,
      "</w>aping": 8006,
      "groupe": 8007,
      "disgr": 8008,
      "lois": 8009,
      "ador": 8010,
      "flanc": 8011,
      "recouv": 8012,
      "assistance": 8013,
      "exprimer": 8014,
      "cherch": 8015,
      "sourit": 8016,
      "méch": 8017,
      "placer": 8018,
      "invis": 8019,
      "permettre": 8020,
      "friendship": 8021,
      "descended": 8022,
      "pousser": 8023,
      "procession": 8024,
      "wooden": 8025,
      "environs": 8026,
      "freed": 8027,
      "limbs": 8028,
      "promener": 8029,
      "donnez": 8030,
      "apercevait": 8031,
      "fanci": 8032,
      "réflexion": 8033,
      "citadelle": 8034,
      "violemment": 8035,
      "higher": 8036,
      "rat": 8037,
      "</w>ky": 8038,
      "chass": 8039,
      "stret": 8040,
      "peasant": 8041,
      "accr": 8042,
      "encoun": 8043,
      "termes": 8044,
      "troop": 8045,
      "begged": 8046,
      "moral": 8047,
      "faisais": 8048,
      "couches": 8049,
      "knee": 8050,
      "humili": 8051,
      "provision": 8052,
      "habitants": 8053,
      "cabin": 8054,
      "concent": 8055,
      "useful": 8056,
      "espérer": 8057,
      "recommenc": 8058,
      "leading": 8059,
      "bonnet": 8060,
      "siège": 8061,
      "gaieté": 8062,
      "consolation": 8063,
      "hérit": 8064,
      "task": 8065,
      "ménage": 8066,
      "signora": 8067,
      "spark": 8068,
      "occuper": 8069,
      "ludovic": 8070,
      "volupt": 8071,
      "kong": 8072,
      "lot": 8073,
      "ours": 8074,
      "pét": 8075,
      "tord": 8076,
      "</w>oms": 8077,
      "seam": 8078,
      "trade": 8079,
      "extended": 8080,
      "abî": 8081,
      "carn": 8082,
      "crying": 8083,
      "blanches": 8084,
      "usually": 8085,
      "recalled": 8086,
      "tempête": 8087,
      "empire": 8088,
      "pouvons": 8089,
      "james": 8090,
      "</w>pected": 8091,
      "ferrier": 8092,
      "profit": 8093,
      "certaines": 8094,
      "noms": 8095,
      "central": 8096,
      "discut": 8097,
      "</w>phy": 8098,
      "jetait": 8099,
      "placé": 8100,
      "</w>engers": 8101,
      "examin": 8102,
      "drebber": 8103,
      "demeura": 8104,
      "mousquetaire": 8105,
      "commencé": 8106,
      "climbed": 8107,
      "slipped": 8108,
      ",—": 8109,
      "cott": 8110,
      "lava": 8111,
      "</w>etty": 8112,
      "arret": 8113,
      "pole": 8114,
      "composed": 8115,
      "</w>chez": 8116,
      "réputation": 8117,
      "secure": 8118,
      "coupable": 8119,
      "désol": 8120,
      "envah": 8121,
      "boue": 8122,
      "grimp": 8123,
      "</w>aws": 8124,
      "nullement": 8125,
      "purch": 8126,
      "vagab": 8127,
      "vagues": 8128,
      "rencontré": 8129,
      "frequent": 8130,
      "gagné": 8131,
      "accepted": 8132,
      "puissant": 8133,
      "essaya": 8134,
      "</w>ongeait": 8135,
      "changé": 8136,
      "mérite": 8137,
      "library": 8138,
      "dessein": 8139,
      "file": 8140,
      "ketty": 8141,
      "loun": 8142,
      "rout": 8143,
      "ug": 8144,
      "wet": 8145,
      "wicked": 8146,
      "</w>leine": 8147,
      "</w>llen": 8148,
      "shill": 8149,
      "meat": 8150,
      "</w>amb": 8151,
      "trag": 8152,
      "sois": 8153,
      "</w>ortable": 8154,
      "manners": 8155,
      "</w>usta": 8156,
      "coiff": 8157,
      "accueill": 8158,
      "</w>aissance": 8159,
      "conscious": 8160,
      "entends": 8161,
      "infam": 8162,
      "army": 8163,
      "espace": 8164,
      "angel": 8165,
      "montmor": 8166,
      "addition": 8167,
      "retourn": 8168,
      "apparition": 8169,
      "settle": 8170,
      "tournait": 8171,
      "aperçu": 8172,
      "procure": 8173,
      "caché": 8174,
      "berks": 8175,
      "résolu": 8176,
      "vanity": 8177,
      "supérieur": 8178,
      "jugement": 8179,
      "attract": 8180,
      "musketeer": 8181,
      "interrompit": 8182,
      "établir": 8183,
      "citadel": 8184,
      "gascon": 8185,
      "guillaume": 8186,
      "cercle": 8187,
      "bombay": 8188,
      "mouchoir": 8189,
      "montmorency": 8190,
      "cité": 8191,
      "cune": 8192,
      "fasse": 8193,
      "hanged": 8194,
      "mirent": 8195,
      "rense": 8196,
      "vend": 8197,
      "</w>ob": 8198,
      "</w>uch": 8199,
      "</w>pool": 8200,
      "degré": 8201,
      "tools": 8202,
      "hadn": 8203,
      "</w>uise": 8204,
      "</w>onnée": 8205,
      "spare": 8206,
      "sentis": 8207,
      "épar": 8208,
      "</w>mbling": 8209,
      "guil": 8210,
      "grivet": 8211,
      "</w>aillit": 8212,
      "tombée": 8213,
      "activ": 8214,
      "domaine": 8215,
      "quarters": 8216,
      "dirai": 8217,
      "changement": 8218,
      "reçut": 8219,
      "schol": 8220,
      "monstre": 8221,
      "introd": 8222,
      "baiser": 8223,
      "silencieux": 8224,
      "cunég": 8225,
      "jalousie": 8226,
      "nourriture": 8227,
      "cunegund": 8228,
      "lion": 8229,
      "mien": 8230,
      "norm": 8231,
      "rug": 8232,
      "tart": 8233,
      "</w>uary": 8234,
      "deck": 8235,
      "tom": 8236,
      "chann": 8237,
      "shaking": 8238,
      "soie": 8239,
      "</w>illa": 8240,
      "</w>ulte": 8241,
      "song": 8242,
      "weigh": 8243,
      "dise": 8244,
      "</w>bled": 8245,
      "</w>ignation": 8246,
      "flash": 8247,
      "anybody": 8248,
      "épais": 8249,
      "calc": 8250,
      "désorm": 8251,
      "reflection": 8252,
      "entrait": 8253,
      "signs": 8254,
      "feuille": 8255,
      "habitation": 8256,
      "montrant": 8257,
      "dirty": 8258,
      "proposition": 8259,
      "frappé": 8260,
      "convenable": 8261,
      "sorrow": 8262,
      "</w>ship": 8263,
      "amener": 8264,
      "atmosphère": 8265,
      "progress": 8266,
      "exhausted": 8267,
      "gouvernante": 8268,
      "guilty": 8269,
      "cunégonde": 8270,
      "désormais": 8271,
      "pace": 8272,
      "rh": 8273,
      "émer": 8274,
      "</w>ograph": 8275,
      "</w>mons": 8276,
      "</w>ha": 8277,
      "</w>bishop": 8278,
      "sale": 8279,
      "monot": 8280,
      "frant": 8281,
      "</w>ival": 8282,
      "appli": 8283,
      "passaient": 8284,
      "loft": 8285,
      "compreh": 8286,
      "admin": 8287,
      "advent": 8288,
      "este": 8289,
      "overcome": 8290,
      "auriez": 8291,
      "servait": 8292,
      "services": 8293,
      "</w>raham": 8294,
      "froidement": 8295,
      "inquired": 8296,
      "archbishop": 8297,
      "occupait": 8298,
      "charmant": 8299,
      "murmur": 8300,
      "blew": 8301,
      "govern": 8302,
      "tapis": 8303,
      "meilleure": 8304,
      "pursued": 8305,
      "suspicion": 8306,
      "uneasy": 8307,
      "terrified": 8308,
      "</w>ranean": 8309,
      "inexplicable": 8310,
      "cécile": 8311,
      "pige": 8312,
      "wants": 8313,
      "</w>laient": 8314,
      "thou": 8315,
      "</w>aises": 8316,
      "shown": 8317,
      "</w>agée": 8318,
      "convey": 8319,
      "avon": 8320,
      "stared": 8321,
      "abri": 8322,
      "</w>asted": 8323,
      "folly": 8324,
      "contact": 8325,
      "directeur": 8326,
      "</w>oiselle": 8327,
      "pleurer": 8328,
      "restée": 8329,
      "</w>ground": 8330,
      "finish": 8331,
      "household": 8332,
      "</w>âtres": 8333,
      "wanting": 8334,
      "excitement": 8335,
      "exploration": 8336,
      "tombé": 8337,
      "furieux": 8338,
      "roads": 8339,
      "mineurs": 8340,
      "benef": 8341,
      "eighty": 8342,
      "excepté": 8343,
      "pronounced": 8344,
      "birth": 8345,
      "atteint": 8346,
      "roman": 8347,
      "singulière": 8348,
      "travailler": 8349,
      "flying": 8350,
      "imprudence": 8351,
      "construction": 8352,
      "issue": 8353,
      "betrayed": 8354,
      "coward": 8355,
      "impertin": 8356,
      "explanation": 8357,
      "13": 8358,
      "jés": 8359,
      "pel": 8360,
      "rust": 8361,
      "tail": 8362,
      "îles": 8363,
      "</w>hire": 8364,
      "</w>înt": 8365,
      "thurs": 8366,
      "anch": 8367,
      "toler": 8368,
      "</w>char": 8369,
      "chand": 8370,
      "paru": 8371,
      "forcé": 8372,
      "plup": 8373,
      "abund": 8374,
      "wholly": 8375,
      "</w>ums": 8376,
      "répéter": 8377,
      "accabl": 8378,
      "pointing": 8379,
      "criant": 8380,
      "vieilles": 8381,
      "répondu": 8382,
      "</w>rison": 8383,
      "suffit": 8384,
      "approcher": 8385,
      "côtes": 8386,
      "</w>iana": 8387,
      "quoiqu": 8388,
      "palazz": 8389,
      "valu": 8390,
      "faiblesse": 8391,
      "adresser": 8392,
      "timid": 8393,
      "goutte": 8394,
      "absorbed": 8395,
      "</w>standing": 8396,
      "boîte": 8397,
      "unexpected": 8398,
      "fancied": 8399,
      "thursday": 8400,
      "plupart": 8401,
      "hit": 8402,
      "jes": 8403,
      "jas": 8404,
      "naked": 8405,
      "pente": 8406,
      "tire": 8407,
      "wre": 8408,
      "</w>ament": 8409,
      "</w>set": 8410,
      "</w>uries": 8411,
      "</w>ommen": 8412,
      "</w>ushing": 8413,
      "mechan": 8414,
      "</w>agés": 8415,
      "</w>agré": 8416,
      "sab": 8417,
      "</w>abilité": 8418,
      "estate": 8419,
      "nov": 8420,
      "marée": 8421,
      "clart": 8422,
      "longitude": 8423,
      "</w>ifier": 8424,
      "charme": 8425,
      "charged": 8426,
      "daylight": 8427,
      "offre": 8428,
      "recall": 8429,
      "empois": 8430,
      "</w>ugn": 8431,
      "entret": 8432,
      "description": 8433,
      "irr": 8434,
      "fausta": 8435,
      "pierron": 8436,
      "rendered": 8437,
      "</w>ogether": 8438,
      "pictures": 8439,
      "examiner": 8440,
      "génie": 8441,
      "raft": 8442,
      "essayer": 8443,
      "intelligent": 8444,
      "gazing": 8445,
      "transports": 8446,
      "discovery": 8447,
      "oiseau": 8448,
      "splendid": 8449,
      "nerfs": 8450,
      "wretch": 8451,
      "!--": 8452,
      "ate": 8453,
      "baie": 8454,
      "ec": 8455,
      "gos": 8456,
      "vil": 8457,
      "</w>iel": 8458,
      "</w>gment": 8459,
      "</w>ino": 8460,
      "</w>init": 8461,
      "</w>quill": 8462,
      "chiff": 8463,
      "shaft": 8464,
      "</w>igr": 8465,
      "</w>aging": 8466,
      "prouv": 8467,
      "corpse": 8468,
      "mince": 8469,
      "holy": 8470,
      "souver": 8471,
      "désagré": 8472,
      "tenaient": 8473,
      "dépens": 8474,
      "irre": 8475,
      "saison": 8476,
      "traverser": 8477,
      "remarquer": 8478,
      "joue": 8479,
      "commençai": 8480,
      "mouquette": 8481,
      "balloon": 8482,
      "rayon": 8483,
      "vanité": 8484,
      "furniture": 8485,
      "ardent": 8486,
      "</w>iasm": 8487,
      "concerned": 8488,
      "manifest": 8489,
      "condem": 8490,
      "réclam": 8491,
      "faux": 8492,
      "fasc": 8493,
      "gown": 8494,
      "</w>house": 8495,
      "</w>roid": 8496,
      "lesquelles": 8497,
      "aval": 8498,
      "saurait": 8499,
      "allant": 8500,
      "cocher": 8501,
      "crains": 8502,
      "impré": 8503,
      "contessa": 8504,
      "</w>hem": 8505,
      "handed": 8506,
      "glor": 8507,
      "porté": 8508,
      "assurer": 8509,
      "final": 8510,
      "couché": 8511,
      "tremp": 8512,
      "conduit": 8513,
      "rappe": 8514,
      "disput": 8515,
      "reconnus": 8516,
      "seconds": 8517,
      "apparut": 8518,
      "papers": 8519,
      "georg": 8520,
      "severe": 8521,
      "pressing": 8522,
      "allem": 8523,
      "frappa": 8524,
      "summit": 8525,
      "resolution": 8526,
      "fermée": 8527,
      "shouting": 8528,
      "avoue": 8529,
      "extent": 8530,
      "knocked": 8531,
      "linge": 8532,
      "multip": 8533,
      "paisible": 8534,
      "fel": 8535,
      "fins": 8536,
      "hipp": 8537,
      "pause": 8538,
      "sne": 8539,
      "</w>ôtre": 8540,
      "</w>ural": 8541,
      "hell": 8542,
      "sell": 8543,
      "semin": 8544,
      "sevent": 8545,
      "choose": 8546,
      "prai": 8547,
      "hauss": 8548,
      "sonner": 8549,
      "estime": 8550,
      "</w>keys": 8551,
      "</w>igné": 8552,
      "recommen": 8553,
      "mates": 8554,
      "pleins": 8555,
      "miners": 8556,
      "désord": 8557,
      "raising": 8558,
      "résister": 8559,
      "brock": 8560,
      "explication": 8561,
      "musique": 8562,
      "skill": 8563,
      "utmost": 8564,
      "possess": 8565,
      "purse": 8566,
      "navires": 8567,
      "mystère": 8568,
      "divine": 8569,
      "sauvé": 8570,
      "dressing": 8571,
      "chacune": 8572,
      "élevé": 8573,
      "dimanche": 8574,
      "recognised": 8575,
      "commencer": 8576,
      "sauta": 8577,
      "énormes": 8578,
      "ouverture": 8579,
      "coquenard": 8580,
      "beasts": 8581,
      "arrested": 8582,
      "statue": 8583,
      "maréchal": 8584,
      "palazzo": 8585,
      "az": 8586,
      "hate": 8587,
      "−−": 8588,
      "</w>pers": 8589,
      "</w>èque": 8590,
      "</w>èbres": 8591,
      "</w>eted": 8592,
      "</w>eler": 8593,
      "</w>qués": 8594,
      "trad": 8595,
      "stage": 8596,
      "fray": 8597,
      "amuse": 8598,
      "robert": 8599,
      "sombres": 8600,
      "</w>ursed": 8601,
      "intent": 8602,
      "passée": 8603,
      "directement": 8604,
      "goods": 8605,
      "exprim": 8606,
      "indisc": 8607,
      "sorti": 8608,
      "pensé": 8609,
      "convuls": 8610,
      "frollo": 8611,
      "formait": 8612,
      "lowood": 8613,
      "sémin": 8614,
      "examine": 8615,
      "succession": 8616,
      "officiers": 8617,
      "présenta": 8618,
      "secrets": 8619,
      "cabaret": 8620,
      "divided": 8621,
      "distinguish": 8622,
      "perceive": 8623,
      "rappeler": 8624,
      "retira": 8625,
      "golden": 8626,
      "inquiet": 8627,
      "sincere": 8628,
      "abandonné": 8629,
      "shadows": 8630,
      "altogether": 8631,
      "wonderful": 8632,
      "tristan": 8633,
      "améric": 8634,
      "kilomet": 8635,
      "arrest": 8636,
      "enclos": 8637,
      "german": 8638,
      "georgiana": 8639,
      "bought": 8640,
      "bisc": 8641,
      "céd": 8642,
      "lâche": 8643,
      "scient": 8644,
      "ébl": 8645,
      "</w>ués": 8646,
      "</w>hurst": 8647,
      "</w>çant": 8648,
      "</w>arch": 8649,
      "lav": 8650,
      "chances": 8651,
      "</w>ays": 8652,
      "islet": 8653,
      "fee": 8654,
      "manuf": 8655,
      "wouldn": 8656,
      "</w>ération": 8657,
      "</w>ifiques": 8658,
      "crack": 8659,
      "retire": 8660,
      "pretended": 8661,
      "drôle": 8662,
      "austr": 8663,
      "empe": 8664,
      "sentier": 8665,
      "preserved": 8666,
      "</w>érid": 8667,
      "pull": 8668,
      "promesse": 8669,
      "</w>berg": 8670,
      "buy": 8671,
      "admitted": 8672,
      "midnight": 8673,
      "comprenait": 8674,
      "dirait": 8675,
      "langage": 8676,
      "distinguer": 8677,
      "victime": 8678,
      "reproach": 8679,
      "blancs": 8680,
      "légèrement": 8681,
      "prochaine": 8682,
      "enthousiasme": 8683,
      "éblou": 8684,
      "manufact": 8685,
      "bêtes": 8686,
      "cere": 8687,
      "dawn": 8688,
      "nette": 8689,
      "oil": 8690,
      "tied": 8691,
      "</w>uille": 8692,
      "</w>lamm": 8693,
      "</w>aus": 8694,
      "</w>ître": 8695,
      "lamb": 8696,
      "</w>rop": 8697,
      "lestrade": 8698,
      "forb": 8699,
      "sap": 8700,
      "</w>neaux": 8701,
      "soient": 8702,
      "</w>ico": 8703,
      "gren": 8704,
      "brist": 8705,
      "reputation": 8706,
      "spéci": 8707,
      "crit": 8708,
      "craw": 8709,
      "flag": 8710,
      "recueill": 8711,
      "emporte": 8712,
      "fril": 8713,
      "fermer": 8714,
      "guests": 8715,
      "lasted": 8716,
      "younger": 8717,
      "renouv": 8718,
      "réserve": 8719,
      "explor": 8720,
      "highest": 8721,
      "décider": 8722,
      "tenter": 8723,
      "exception": 8724,
      "rappelait": 8725,
      "concluded": 8726,
      "heights": 8727,
      "reflections": 8728,
      "fantast": 8729,
      "arrangement": 8730,
      "treated": 8731,
      "atmosphere": 8732,
      "suggest": 8733,
      "indicated": 8734,
      "jumped": 8735,
      "maman": 8736,
      "behaviour": 8737,
      "mingled": 8738,
      "dwelling": 8739,
      "explosion": 8740,
      "frantz": 8741,
      ".”": 8742,
      "gare": 8743,
      "hull": 8744,
      "rank": 8745,
      "seld": 8746,
      "xiii": 8747,
      "yonder": 8748,
      "ébran": 8749,
      "</w>gent": 8750,
      "</w>erais": 8751,
      "devez": 8752,
      "</w>orde": 8753,
      "inch": 8754,
      "</w>chet": 8755,
      "plants": 8756,
      "dug": 8757,
      "duel": 8758,
      "</w>orted": 8759,
      "dish": 8760,
      "</w>ivent": 8761,
      "</w>avag": 8762,
      "grandeur": 8763,
      "regardaient": 8764,
      "venus": 8765,
      "correct": 8766,
      "</w>iquement": 8767,
      "assit": 8768,
      "</w>well": 8769,
      "arrivant": 8770,
      "...,": 8771,
      "cleared": 8772,
      "</w>ettez": 8773,
      "saisir": 8774,
      "aimais": 8775,
      "highness": 8776,
      "permet": 8777,
      "désirait": 8778,
      "réfug": 8779,
      "understanding": 8780,
      "nombreux": 8781,
      "suspend": 8782,
      "chemist": 8783,
      "speedy": 8784,
      "inclined": 8785,
      "</w>ammered": 8786,
      "</w>................": 8787,
      "poussière": 8788,
      "fâché": 8789,
      "vieillard": 8790,
      "enthusiasm": 8791,
      "expérience": 8792,
      "lounge": 8793,
      "dart": 8794,
      "eating": 8795,
      "icel": 8796,
      "nay": 8797,
      "pall": 8798,
      "tan": 8799,
      "tais": 8800,
      "</w>aies": 8801,
      "</w>atif": 8802,
      "chante": 8803,
      "</w>vern": 8804,
      "duquel": 8805,
      "</w>osen": 8806,
      "arre": 8807,
      "</w>ulations": 8808,
      "</w>acés": 8809,
      "</w>acité": 8810,
      "</w>sibles": 8811,
      "poly": 8812,
      "</w>lice": 8813,
      "tear": 8814,
      "</w>istible": 8815,
      "loaded": 8816,
      "perte": 8817,
      "crab": 8818,
      "impas": 8819,
      "canons": 8820,
      "flame": 8821,
      "affreuse": 8822,
      "associ": 8823,
      "savant": 8824,
      "salt": 8825,
      "anguish": 8826,
      "similar": 8827,
      "approch": 8828,
      "façons": 8829,
      "imaginer": 8830,
      "actually": 8831,
      "demeurait": 8832,
      "torture": 8833,
      "prononcer": 8834,
      "rappela": 8835,
      "étendue": 8836,
      "eaten": 8837,
      "disappear": 8838,
      "lydie": 8839,
      "affected": 8840,
      "avançait": 8841,
      "liquid": 8842,
      "indignation": 8843,
      "appareil": 8844,
      "convaincu": 8845,
      "whispered": 8846,
      "energy": 8847,
      "hedge": 8848,
      "napoleon": 8849,
      "frilair": 8850,
      "12": 8851,
      "bid": 8852,
      "fest": 8853,
      "gain": 8854,
      "roses": 8855,
      "</w>iés": 8856,
      "</w>woman": 8857,
      "</w>orce": 8858,
      "</w>quis": 8859,
      "</w>ilder": 8860,
      "conj": 8861,
      "</w>owing": 8862,
      "soi": 8863,
      "</w>oler": 8864,
      "gré": 8865,
      "</w>mbers": 8866,
      "marble": 8867,
      "brit": 8868,
      "passengers": 8869,
      "complic": 8870,
      "devoured": 8871,
      "somewhere": 8872,
      "likewise": 8873,
      "incomp": 8874,
      "depend": 8875,
      "jock": 8876,
      "trif": 8877,
      "méc": 8878,
      "humain": 8879,
      "égar": 8880,
      "grie": 8881,
      "solide": 8882,
      "invited": 8883,
      "tiré": 8884,
      "osait": 8885,
      "pâl": 8886,
      "anciens": 8887,
      "cousine": 8888,
      "smooth": 8889,
      "ressent": 8890,
      "fantais": 8891,
      "pénétrer": 8892,
      "opération": 8893,
      "rochers": 8894,
      "écoutez": 8895,
      "tumult": 8896,
      "énergie": 8897,
      "coutume": 8898,
      "stupef": 8899,
      "catastrophe": 8900,
      "iceland": 8901,
      "gay": 8902,
      "</w>enaient": 8903,
      "</w>urse": 8904,
      "chairs": 8905,
      "meal": 8906,
      "plaf": 8907,
      "hiss": 8908,
      "</w>neau": 8909,
      "stories": 8910,
      "</w>ulent": 8911,
      "réquill": 8912,
      "mars": 8913,
      "passport": 8914,
      "</w>aker": 8915,
      "crat": 8916,
      "crue": 8917,
      "obt": 8918,
      "resist": 8919,
      "charpent": 8920,
      "offrait": 8921,
      "regarded": 8922,
      "incidents": 8923,
      "underwater": 8924,
      "savages": 8925,
      "difference": 8926,
      "donnaient": 8927,
      "subitement": 8928,
      "counter": 8929,
      "souvarine": 8930,
      "extravag": 8931,
      "matinée": 8932,
      "respectable": 8933,
      "descendait": 8934,
      "éloigner": 8935,
      "chanter": 8936,
      "supported": 8937,
      "prisonniers": 8938,
      "weakness": 8939,
      "hypoth": 8940,
      "ressemblait": 8941,
      "article": 8942,
      "fameux": 8943,
      "liverpool": 8944,
      "biblioth": 8945,
      "invisible": 8946,
      "réquillart": 8947,
      "mans": 8948,
      "rush": 8949,
      "xv": 8950,
      "</w>ded": 8951,
      "</w>isée": 8952,
      "</w>isation": 8953,
      "ceinture": 8954,
      "</w>ulse": 8955,
      "frere": 8956,
      "allong": 8957,
      "dégo": 8958,
      "altesse": 8959,
      "amused": 8960,
      "marier": 8961,
      "marbre": 8962,
      "upstairs": 8963,
      "rope": 8964,
      "branch": 8965,
      "écar": 8966,
      "doubl": 8967,
      "commune": 8968,
      "acte": 8969,
      "servante": 8970,
      "treas": 8971,
      "sixty": 8972,
      "chapelle": 8973,
      "derniere": 8974,
      "active": 8975,
      "careful": 8976,
      "voisins": 8977,
      "tranquil": 8978,
      "sensations": 8979,
      "précaution": 8980,
      "narr": 8981,
      "instructions": 8982,
      "blessure": 8983,
      "miracle": 8984,
      "théâtre": 8985,
      "fighting": 8986,
      "destinée": 8987,
      "raconta": 8988,
      "delivered": 8989,
      "acquainted": 8990,
      "raisonnable": 8991,
      "wardes": 8992,
      "bizarre": 8993,
      "napoléon": 8994,
      "condemned": 8995,
      "ceremon": 8996,
      "cook": 8997,
      "dazz": 8998,
      "jal": 8999,
      "maire": 9000,
      "nin": 9001,
      "nive": 9002,
      "pyr": 9003,
      "</w>je": 9004,
      "</w>ône": 9005,
      "thither": 9006,
      "</w>eding": 9007,
      "</w>omètre": 9008,
      "</w>ousse": 9009,
      "whit": 9010,
      "étude": 9011,
      "</w>versi": 9012,
      "</w>ability": 9013,
      "trot": 9014,
      "</w>erson": 9015,
      "dissip": 9016,
      "noon": 9017,
      "manage": 9018,
      "manières": 9019,
      "touché": 9020,
      "pretend": 9021,
      "répar": 9022,
      "contrib": 9023,
      "overt": 9024,
      "instance": 9025,
      "</w>rets": 9026,
      "mery": 9027,
      "restaient": 9028,
      "horn": 9029,
      "confond": 9030,
      "volt": 9031,
      "</w>ailli": 9032,
      "échou": 9033,
      "comprend": 9034,
      "nulle": 9035,
      "transpar": 9036,
      "pardonne": 9037,
      "breathing": 9038,
      "politesse": 9039,
      "folk": 9040,
      "cavalier": 9041,
      "sufficiently": 9042,
      "remarkable": 9043,
      "comrades": 9044,
      "protection": 9045,
      "boulevers": 9046,
      "11": 9047,
      "gast": 9048,
      "hut": 9049,
      "ii": 9050,
      "mute": 9051,
      "oath": 9052,
      "tient": 9053,
[...]
